[PAD]
[UNK]
[START]
[END]
!
"
#
$
%
&
'
(
)
*
+
,
-
.
/
0
1
2
3
4
5
6
7
8
9
:
;
<
=
>
?
@
[
\
]
^
_
`
a
b
c
d
e
f
g
h
i
j
k
l
m
n
o
p
q
r
s
t
u
v
w
x
y
z
{
}
~
®
°
β
μ
–
—
‘
’
“
”
⁄
−
≥
�
the
of
and
in
is
to
or
are
for
that
with
may
have
be
people
can
symptoms
as
syndrome
this
these
what
on
disease
blood
your
an
cancer
from
condition
symptom
you
by
patients
information
signs
how
treatment
if
also
gene
other
it
who
not
number
##s
cells
type
which
frequency
often
one
body
90
cause
available
has
some
genetic
when
more
many
called
study
50
sign
heart
25
risk
about
affected
cases
medical
usually
at
rare
most
such
health
include
therapy
they
clinical
cell
mutations
autosomal
common
disorder
no
diabetes
inherited
human
were
surgery
problems
skin
treatments
up
than
all
care
following
tests
found
individuals
listed
examined
trials
their
because
phenotype
fraction
ontology
occurs
use
brain
but
first
abnormality
help
do
protein
different
medlineplus
causes
means
specific
deficiency
each
high
sometimes
will
doctor
into
used
muscle
much
diagnosis
children
tumor
kidney
after
another
recessive
caused
changes
system
based
been
there
small
provides
loss
pain
person
bone
during
types
testing
genes
form
normal
example
test
group
severe
had
##ing
part
related
look
tissue
develop
occur
radiation
through
conditions
inheritance
includes
short
seen
abnormal
liver
list
ghr
gard
below
new
management
second
dominant
levels
factors
time
however
two
certain
total
associated
features
disorders
only
pressure
should
stage
feature
development
prevent
eye
age
percentage
comes
table
both
tumors
estimate
family
resources
european
any
early
collected
terms
low
chemotherapy
including
database
lead
rough
definitions
##d
frequencies
drug
approximate
orphanet
fractions
hpo
dictionary
childhood
being
growth
result
need
congenital
infection
typically
make
linked
known
before
out
registry
lower
physical
abnormalities
spread
##ed
research
treated
long
function
glucose
infections
lung
women
failure
mutation
copy
damage
control
affect
chronic
lymph
over
medicines
diseases
chromosome
history
tissues
child
pattern
get
show
treat
diagnose
insulin
urine
take
dysplasia
life
parts
impairment
anemia
drugs
affects
done
immune
hypoplasia
bones
results
increased
activity
##a
weight
healthy
##e
proteins
between
important
medications
whether
hearing
find
provider
seizures
although
muscles
primary
years
making
where
see
organs
various
nerve
weakness
##ly
unknown
like
several
birth
procedure
its
trial
back
taking
vision
review
familial
having
less
red
hormone
reduce
vessels
check
breast
within
likely
intellectual
disability
characterized
without
diagnosed
chest
even
fluid
does
multiple
large
well
diagnostic
become
side
percent
stroke
researchers
national
developing
movement
kidneys
mouth
very
areas
cholesterol
progressive
while
bladder
##t
too
onset
increase
spinal
those
might
counseling
leukemia
involved
enzyme
forms
them
bleeding
eyes
hair
instructions
rehabilitation
adults
lungs
facial
standard
amount
neck
using
diet
##1
dystrophy
helps
down
offer
food
given
uses
palliative
present
joint
factor
made
individual
remove
men
mild
right
##l
hereditary
studies
due
copies
effects
patient
carry
renal
address
needed
atrophy
##y
appear
experience
neurological
enough
under
tract
few
head
same
stature
causing
improve
ataxia
nervous
general
older
parents
foods
altered
so
muscular
energy
attack
##n
change
complications
##al
recurrent
mutated
fat
production
three
white
around
skeletal
inflammation
legs
role
lymphoma
work
way
urinary
talk
better
oxygen
chance
flow
cord
ways
level
sugar
smoking
exam
process
inside
fever
nci
sleep
beta
face
cannot
acid
eating
institute
##in
nasal
serious
dna
area
pregnancy
##i
##es
breathing
##r
acute
ninds
marrow
day
stop
keep
possible
reduced
options
size
upper
tube
iron
males
##2
finger
infants
nodes
non
respiratory
speech
higher
adult
abdomen
abdominal
##er
among
months
myopathy
parent
characteristic
effective
ii
especially
reported
biopsy
go
000
severity
aplasia
nose
intestine
teeth
10
arteries
defects
normally
exercise
##o
females
pulmonary
niddk
doctors
stem
hand
begin
identified
stomach
autoimmune
delayed
feet
palate
light
sample
depends
generally
artery
grow
getting
least
hands
prostate
removed
thyroid
medicine
death
##h
bacteria
substances
away
decreased
term
additional
ray
leads
others
ability
makes
##b
##p
encyclopedia
defect
complex
was
vary
active
arthritis
neuropathy
families
cleft
know
commonly
imaging
search
cognitive
increases
leading
major
nih
ears
vomiting
##ic
plan
central
external
follow
diarrhea
scan
calcium
##c
infancy
swelling
taken
coronary
then
extra
sufficient
movements
receive
produce
ear
hypotonia
##g
delay
malignant
nerves
lack
chromosomes
particularly
##3
difficulty
either
##ia
motor
problem
combination
##ation
baby
slow
hormones
alcohol
every
stress
thin
feel
##m
virus
later
oral
injury
medication
cerebral
described
developmental
providers
episodes
hospital
pituitary
transplant
arms
carcinoma
vein
vitamin
deletion
manner
substance
benign
adulthood
gland
distal
underlying
set
sex
location
##us
hepatitis
eat
iv
think
lifestyle
throughout
water
antibodies
microcephaly
wide
bile
alpha
procedures
ovarian
sarcoma
iii
learn
best
don
abnormally
cure
play
summary
impaired
provide
adrenal
produced
ask
spreads
rate
similar
infected
addition
special
enlarged
considered
glands
treating
days
block
juvenile
contact
limb
pancreas
resulting
appears
re
come
joints
optic
colon
rarely
dry
formation
clots
valve
attacks
foot
lip
20
states
digestive
bowel
move
require
weeks
mental
microscope
mitochondrial
prevalence
obesity
poor
range
inflammatory
visual
website
united
scoliosis
now
prevention
sodium
excess
dystonia
until
single
exposure
organ
cancers
dehydrogenase
thought
fatigue
located
peripheral
tested
year
epilepsy
infantile
working
name
cardiomyopathy
unclear
approximately
place
late
narrow
spastic
involves
open
spine
bloodstream
balance
walking
recommend
pictures
stages
##is
main
fingers
support
longer
targeted
30
##4
break
avoid
feeling
threatening
environmental
want
soft
born
hard
prognosis
shaped
amounts
begins
near
sudden
able
center
structures
intestinal
functions
must
buildup
##on
pass
mplushealthtopics
outlook
he
once
home
times
##k
air
cavity
hernia
hypertension
frequently
suggest
ct
continue
currently
gastrointestinal
persons
dose
degeneration
growing
cirrhosis
relieve
young
detect
depression
estimated
ultrasound
dialysis
exact
she
wall
difficult
hodgkin
response
hours
bridge
paralysis
products
current
receptor
complete
##6
nausea
cardiac
together
properly
cataract
systemic
regular
insufficiency
studied
fats
slowly
depending
learning
internal
recommended
overweight
tomography
feeding
platelets
structure
broad
elevated
key
section
responsible
good
trouble
recovery
frequent
##ion
develops
followed
difficulties
illness
own
antibiotics
material
##5
left
male
molecules
surgical
screening
dental
injected
nearby
skull
removal
signals
enter
fibrosis
middle
cysts
still
live
acids
hypoglycemia
spleen
needs
outside
decrease
fatty
half
periods
affecting
questions
asthma
mri
##f
15
safe
tooth
metabolic
limbs
sclerosis
corneal
absent
varies
essential
retinal
activities
determine
dementia
off
##ive
lesions
rectum
above
breath
acquired
resistance
retardation
weak
necessary
pregnant
deafness
dysfunction
lining
order
directly
arm
larger
osteoporosis
damaged
four
laboratory
hemolytic
starting
##ting
neurons
nystagmus
could
signaling
give
worse
becomes
toes
malformation
smoke
isolated
start
node
involve
parkinson
kill
prominent
clear
tend
scientists
stenosis
pneumonia
build
##osis
hemoglobin
rays
storage
members
began
potassium
urethra
completely
identify
quickly
try
limited
night
nihseniorhealth
just
moderate
vessel
inherit
metastatic
radioactive
salt
##ine
professional
cold
worldwide
throat
drink
syndactyly
40
forehead
germ
anxiety
past
unusual
yet
##itis
electrical
shown
repeated
services
needle
almost
close
functional
presence
shape
cancergov
checked
machine
therapies
babies
daily
estrogen
exposed
last
anti
hepatic
melanoma
##um
##ry
surface
chemical
milk
sexual
excessive
groups
stool
depend
measure
supported
genetics
region
color
gait
retina
sensory
sensorineural
missing
whose
picture
stones
##0
instead
little
per
plaque
team
believe
gestational
##an
behavioral
dye
incontinence
rest
widely
neonatal
particular
placed
tremor
veins
female
end
deep
idiopathic
plays
carriers
lose
detailed
sound
##le
100
hypertelorism
preventing
producing
cerebellar
variety
magnetic
series
broken
travels
carrier
passed
sporadic
cartilage
rash
smell
absence
ribs
supplements
appearance
distinctive
irregular
waves
against
population
rapid
points
density
gets
injuries
swallowing
contribute
nutrition
protect
viral
inner
mellitus
progression
glaucoma
##able
american
antibody
case
aids
atresia
premature
prescribe
shows
##en
device
##ate
country
kinase
chd
resonance
stiffness
unusually
ages
always
paraplegia
why
doesn
healthcare
shortage
glycogen
tone
die
nhlbi
fast
further
primarily
generalized
uterus
##ness
opening
skills
thick
worsen
cough
60
accepting
colitis
free
greater
diabetic
dietary
woman
computer
catheter
hip
shortness
inhibitors
acidosis
bodys
##ted
gas
illnesses
accumulation
performed
vertebral
systems
##ity
brachydactyly
social
along
painful
sure
##id
behavior
future
prevents
minutes
aortic
goal
coa
septal
sperm
##ts
leg
partial
earlier
tongue
##7
call
measures
clotting
refine
polydactyly
strabismus
thrombocytopenia
amino
fibers
hemochromatosis
involuntary
bodies
her
thrive
cystic
eggs
patches
secondary
##ase
congenita
gi
never
permanent
regulate
tell
create
malformations
drinking
fluids
repair
smaller
membrane
ventricular
##oma
palsy
supportive
blindness
esophagus
period
jaw
duct
nail
week
adolescence
contain
inability
release
survive
##ies
headache
metabolism
stay
trigger
centers
constipation
steps
mainly
morphology
migraine
corpus
hyperplasia
layer
memory
ovaries
sensitive
blockage
cdc
penis
site
mother
frontal
positive
##or
chemicals
rich
things
toe
toxic
usual
callosum
combined
ptosis
##x
anus
happens
pelvis
taste
##ment
hydrocephalus
obstruction
reach
intolerance
impair
alzheimers
colorectal
parasites
peritoneal
replacement
respond
association
cryptorchidism
maintain
pancreatic
##nt
##st
mean
though
syndromes
involving
##te
alone
headaches
tiny
anal
clot
perform
vascular
##mia
alopecia
connective
eventually
full
unable
apparent
reproductive
breakdown
apnea
newborns
12
viruses
carries
philtrum
gain
puberty
approved
here
vaccine
##ers
##ide
pelvic
blocks
discomfort
click
myeloid
allows
images
literature
de
million
quit
visit
choice
mineral
provided
vegetables
habits
spasticity
coordination
blocked
intestines
surgeon
bacterial
immunodeficiency
mitochondria
language
received
temperature
video
enzymes
fetal
quality
forming
encephalopathy
cone
increasing
cutaneous
gallbladder
collagen
lupus
remains
someone
rheumatoid
##9
atypical
third
##v
macular
cns
ducts
fiber
staging
anesthesia
fight
neoplasm
thalassemia
charcot
easily
hypothyroidism
raise
average
marie
depressed
finding
parathyroid
18
endocrine
count
11
angina
phosphate
trauma
##tion
countries
deposits
ichthyosis
institutes
would
lab
potential
airways
fewer
office
proper
##a1
lactose
regions
suggests
critical
nutrients
obese
since
imperfecta
medicare
examine
hypoplastic
shock
hiv
platelet
risks
local
##8
course
goes
dizziness
protective
understand
cancerous
inserted
prescribed
reducing
tubes
attention
referred
##oid
disrupt
younger
old
hdl
harmful
intake
inherits
avoiding
his
phalanx
program
takes
developed
grade
manage
division
allow
examination
transport
##u
mobility
thumb
chain
limit
calories
hydroxylase
numbness
simple
##ous
contains
mass
fractures
reaction
rotated
laboratories
living
specializes
walk
anterior
microphthalmia
places
flu
lens
spectrum
heartbeat
##ated
anything
remain
severely
##ial
advanced
fruits
jaundice
nuclear
progresses
prolonged
samples
whole
genitalia
underdeveloped
17
retinopathy
significant
doses
americans
basal
beginning
follows
prediabetes
computerized
confirm
agenesis
formed
centimeters
cyst
##ge
eyebrow
laser
myoclonus
binding
corticosteroids
sinus
##tic
coloboma
transplantation
effect
hepatomegaly
liquid
arrhythmia
polycystic
proximal
building
celiac
examples
sensation
vitamins
##ian
posteriorly
sick
suspected
flat
supports
functioning
spinocerebellar
genital
macrocephaly
ongoing
plasma
serum
voice
mg
we
bullosa
classic
self
edema
##ns
containing
understanding
controls
links
chromosomal
emergency
sparse
confusion
controlling
scans
duplication
interfere
##ve
evidence
probably
reason
regulation
alzheimer
cornea
scarring
walls
fusion
happen
shingles
african
recurring
75
five
fragile
monitor
prescription
soon
epidermolysis
top
sense
therefore
lice
quitting
untreated
analysis
ldl
action
aorta
specifically
dehydration
endometrial
waste
acidemia
today
tubular
coming
dilated
correct
palmoplantar
swollen
breathe
nephropathy
spots
##ma
dysostosis
sensitivity
specialist
member
progress
requires
strength
contracture
front
lymphocytes
overall
incidence
monoclonal
put
susceptibility
##ct
aneurysm
benefit
bmi
direct
injection
mucus
produces
variant
##ol
reasons
recent
specialists
nephrotic
travel
valves
##b1
refers
required
my
across
atherosclerosis
matter
neuroblastoma
specialized
devices
sores
symptomatic
divided
filter
girdle
tired
appropriate
education
camptodactyly
outpatient
removes
variable
##one
clinodactyly
wear
pet
maturation
technician
emotional
disrupts
extreme
greatly
bilateral
builds
cut
intravenous
leukoencephalopathy
natural
urination
vasculitis
already
fatal
position
vagina
##ular
80
dysarthria
isn
microdeletion
released
trisomy
giving
intrauterine
neuronal
amyloidosis
foreign
our
##sis
pectus
##nce
attach
dark
keratoderma
pump
disturbance
fallopian
infectious
experts
itself
milder
resistant
stored
5th
choose
ckd
page
reflux
state
aging
myopia
personal
remaining
fetus
routine
biologic
inguinal
next
psoriasis
works
70
arterial
breaks
epicanthus
##ling
##th
cerebrospinal
everyone
painless
space
variants
##ized
egg
started
step
thus
urethral
fasting
infertility
appetite
blue
man
unaffected
inhibitor
membranes
pdq
restore
splenomegaly
professionals
report
scalp
tb
maintaining
pediatric
read
##ch
component
gradually
telangiectasia
traits
triggers
populations
understood
answer
cerebellum
cycle
rapidly
ulcers
clearly
forward
initial
surrounding
agents
flexible
periodic
cranial
knee
vertebrae
##re
14
aspirin
entire
spasms
##ra
aciduria
cortisol
diffuse
encephalitis
hemorrhagic
ions
pigmentation
removing
environment
hyperparathyroidism
kinds
molecule
piece
animals
cutis
dietitian
hemorrhage
rhythm
changed
drinks
image
overgrowth
hla
fully
base
focal
focuses
gout
dependent
pathologist
suspect
synostosis
osteoarthritis
reduction
controlled
palpebral
sitting
starts
testicular
helpful
iris
variations
cjd
grows
lasts
lost
patterns
phase
prenatal
pyruvate
tiredness
##rs
cardiovascular
contractures
heavy
rectal
saturated
eyelids
gotten
physically
reactions
talipes
wilson
numbers
hypertonia
malabsorption
nevus
squamous
##se
biliary
donor
viewed
distinguished
kyphosis
recurred
significantly
ulcerative
decisions
dividing
else
itching
autonomic
calcification
lumps
meal
meat
porphyria
vre
##ization
crohn
split
fingernails
hemodialysis
lateral
topic
wasting
degree
fish
overview
##ism
24
bossing
public
temporary
21
craniosynostosis
findings
paroxysmal
retinoblastoma
abuse
easy
metacarpal
carnitine
salivary
##ium
attached
classified
ekg
infant
line
run
danlos
disabilities
ehlers
goals
carotid
guide
mitral
rh
##ter
##the
ectodermal
pathway
dislocation
dyskinesia
relax
##ent
13
channels
##ds
rod
##ities
aml
article
supply
##ar
##rin
200
heat
##ll
fine
reduces
uric
chances
compared
web
consider
eyelashes
gums
hot
knees
computed
destroy
segment
sickle
bruising
cellular
coma
malar
strong
von
occasionally
##il
regional
trunk
wastes
##uria
##w
blockers
hips
meals
methods
seems
sequence
##ctomy
additionally
arteriosus
colored
hemophilia
hypertrophic
myelin
roof
characteristics
mature
absorb
atria
beam
flattening
limitation
oropharyngeal
please
polyps
t2d
##me
anomalies
communication
diagnosing
fall
detected
replace
steroids
thinking
hypotension
needles
plus
toxins
canal
carpal
lifetime
retrieved
uncontrolled
vaccines
accumulate
animal
chorea
humans
monitoring
umbilical
##ally
height
lymphedema
marfan
negative
sweating
ductus
hematuria
keeping
mtdna
programs
triglycerides
patent
##ks
##ure
bilirubin
destruction
mps
proteinuria
sun
walker
cataracts
counter
insurance
knowledge
lymphocytic
transmission
##opathy
a1c
coarse
cramps
dl
effectively
ends
gastric
growths
pes
separate
techniques
toward
cushing
return
transfusions
lactic
listing
menstrual
outer
radio
rule
tobacco
##ps
narrowing
newborn
rather
target
airway
lasting
mostly
processes
ring
sides
unless
weakened
##ant
access
dopamine
moving
tends
alter
##ls
albumin
gives
issues
neurofibromatosis
retention
800
account
benefits
copd
curvature
groin
parkinsonism
rise
scar
vermilion
testes
16
arrhythmias
coughing
did
hyperreflexia
shoulder
somatic
covering
lump
persistent
remission
contaminated
##ize
##tive
autism
bind
craniofacial
impairs
survival
##ce
actually
elbow
paget
regularly
tingling
urinate
##ier
##less
##ving
behind
burning
channel
hour
hyperactivity
send
sons
noonan
source
stopping
turn
ultimately
upon
##age
##de
enlargement
event
hormonal
immature
neutropenia
seem
slightly
studying
warfarin
##it
b12
deterioration
eliminate
topical
##cy
menopause
microscopic
neoplasia
##os
aggressive
anticancer
ended
fistula
hyperkeratosis
involvement
lives
lysosomes
relief
smooth
atrial
ewing
performs
portion
radial
stimulation
ureter
vaginal
##otic
ankles
intermediate
managing
minor
bifida
describes
embryonic
expected
transcription
fa
medium
stops
##ne
compression
expression
spina
65
aneurysms
bad
indicate
suggested
##as
asbestos
exercises
lch
nares
rigidity
stools
twice
utis
##sia
administration
aged
deformities
kaposi
maternal
nonsyndromic
six
watch
##ble
anomaly
barr
scleroderma
##ish
checking
continues
gum
hypermobility
hypogonadism
network
overactive
stiff
##el
antibiotic
decline
looking
losing
pathways
phosphorus
scd
school
spontaneous
world
##ding
##omas
myelodysplastic
wilms
flexion
length
ll
ocular
recover
35
cat
cortical
dwarfism
nurse
triggered
##ants
##ence
##q
aren
attaches
cervical
incomplete
insipidus
lips
minerals
obtain
standing
##n1
father
gallstones
insomnia
myoclonic
potentially
structural
waist
anteverted
brown
dont
dysphagia
highly
kind
polycythemia
view
consciousness
eyelid
foundation
grams
hyperthyroidism
lethal
mid
narcolepsy
speak
##cing
added
boys
csf
enamel
extremely
intrahepatic
link
occupational
protects
damages
fathers
personality
bowing
fact
influence
lipid
sarcoidosis
hemiplegia
loose
relatively
topics
##ib
blepharophimosis
nails
copper
mood
purpura
alagille
easier
endoscope
ensure
femoral
homeostasis
leukodystrophy
thickened
cholestasis
lowering
chin
faulty
harm
uti
##ue
successful
themselves
transient
ulcer
catheters
childs
incision
myeloproliferative
myotonia
safety
signal
useful
fashion
ovary
tip
ups
amyotrophy
beans
digest
hypertrichosis
lymphatic
resection
version
drop
intervention
worsens
albinism
divide
iodine
layers
majority
occurring
prostatic
scientific
stone
allergic
believed
epiphysis
glucagon
looks
lot
seizure
##ome
##ral
aimed
axonal
excision
fibrous
mecp2
notice
point
polyposis
steroid
thoracic
##at
antigen
doing
maintenance
pills
poorly
regression
##ck
##ms
asymmetry
mucopolysaccharidosis
pterygium
rickets
meaning
myeloma
stores
suddenly
##line
act
carcinoid
gastritis
##tes
33
axial
contractions
irritability
previous
records
seek
sources
training
##ical
als
chambers
doesnt
eeg
filled
induced
instrument
oncologist
rib
yellow
##ating
approaches
creatine
distress
osteogenesis
pigmentosa
relative
typical
aspiration
basis
clean
noncancerous
passing
seeds
sounds
teens
##ld
conductive
ganglia
##les
##ration
##ta
500
anyone
bring
chondrodysplasia
eruption
fissure
friends
huntington
incoordination
intelligence
uremic
contrast
destroyed
guidelines
ie
pale
phalanges
random
strokes
aicardi
vancomycin
##ty
consists
double
fanconi
inclusion
materials
mosaic
rna
##na
complement
deviation
option
pleural
prednisone
spaced
sweat
tips
aim
bronchitis
exercising
facility
histiocytosis
laryngeal
pancreatitis
penetrance
raises
rates
responsive
sends
subunit
##ie
lethargy
localized
round
##ose
aplastic
kyphoscoliosis
palpitations
recently
relatives
situ
trained
variability
##est
##ric
##t1
discuss
excavatum
feelings
folds
hd
inserts
novo
nutritional
ve
##tal
blisters
larynx
processing
synthetase
toenails
tunnel
chiari
hypospadias
leak
possibly
posterior
redness
translocation
coagulation
glycosylation
lactate
newly
trans
wrist
##ses
again
approach
cigarette
dangerous
ectopic
grains
hold
inches
lymphoblastic
mechanisms
##cc
balanced
belly
elbows
gluten
transfusion
transmitted
##ning
carefully
echo
fracture
inflamed
lie
sinuses
trachea
##d1
##ler
##mic
46
expectancy
germs
infusion
inversus
meningitis
regulating
tyrosine
uncommon
##ocytes
bed
ethnic
fallot
girls
##z
angiotensin
binds
cilia
complication
orthostatic
bloating
confirmed
contract
trying
##led
##ss
conduction
delays
esophageal
nearly
noticeable
radius
reports
roles
##ors
45
careful
exams
hemiparesis
invasive
rls
shrink
allergies
basic
heal
neurologic
transmit
cfs
decreases
drops
ophthalmoplegia
parasite
regulates
retinitis
simplex
vrsa
waiting
yourself
##sh
immunotherapy
method
methylmalonic
osteopetrosis
passes
subcutaneous
tetralogy
acth
diaphragmatic
hemiplegic
killing
metaphyseal
pneumothorax
repeat
shoulders
urea
wearing
harder
index
neoplasms
polymicrogyria
receptors
clothing
determined
fainting
iga
improves
ischemic
meant
rhabdomyosarcoma
graves
hypertrophy
interferes
tremors
##ping
beyond
medullary
proliferation
reflexes
store
talking
thrombosis
##ins
cervix
community
eosinophilic
epithelial
genu
mucolipidosis
sclerosing
ah
anywhere
delivery
hyperpigmentation
ossification
psychiatric
speaking
turned
warm
adolescents
alveolar
dash
injections
molecular
status
tears
af
button
clusters
conducts
cover
diaphragm
giant
rupture
sore
uterine
ciliary
closely
hpv
leber
mandibular
operation
prone
turner
##ectomy
acuity
angles
biological
black
blistering
improvement
necrosis
previously
##cd
##ite
##tor
accompanied
commercial
epiphyseal
nucleus
overload
sjgren
something
true
ulnar
##om
##oscope
according
arthralgia
empty
far
fructose
meet
online
ventricles
##c1
events
motion
nodules
onto
pseudo
words
##ca
##ulation
extent
mody
postaxial
regarding
tachycardia
urologist
##fs
defective
sleeping
##ings
##ition
22
asleep
blurred
enlarge
fungoides
hairline
intense
mycosis
myelogenous
ones
planus
press
sacs
sideroblastic
solution
warning
willebrand
##and
##eal
##et
amyloid
carbon
corticosteroid
cyclic
digital
endoscopy
fibrillation
flows
lipodystrophy
nursing
opitz
##ded
allowing
asian
cheeks
comprehensive
cope
department
equinovarus
focus
impulses
refer
touch
transverse
capillary
cf
choices
contributes
dissection
interact
names
photophobia
pigment
plans
klippel
ridge
thrombocythemia
vocal
weaken
##ea
##ual
deficit
describe
differ
institutions
myasthenia
neural
note
swallowed
venous
##ay
##ron
ceroid
corners
fail
fecal
glomerulopathy
igm
impact
kawasaki
moves
surrounds
aid
hairy
product
promote
recur
room
shortened
species
vulvar
##ative
##bs
23
aat
activated
fused
reading
absorption
actin
auditory
corner
cuts
gender
glomerular
hyper
migration
mildly
narrowed
observed
partially
pieces
##la
acromegaly
allergy
carbohydrates
core
episode
generation
hallucinations
midface
nipple
saliva
thinning
thorax
tool
##lia
arachnodactyly
equipment
immediately
leigh
lymphadenopathy
mixed
occurred
palm
tasks
thymus
widespread
##ging
##onic
##ro
amd
camera
date
dentist
diets
hgh
mechanism
millimeters
reductase
thiamine
thrombophilia
unlike
ureters
vi
wash
whites
youre
##inuria
endothelial
erectile
frontotemporal
me
physician
university
##up
components
covered
dermatitis
differences
evaluation
gamma
hyperthermia
interstitial
naturally
osteosarcoma
pkd
sunlight
varicose
visa
##ulin
checks
dairy
dandy
focused
gm1
##are
##emia
##ut
##va
bumps
cramping
explain
gh
going
great
hyperostosis
immunosuppressive
intraocular
invaders
lissencephaly
mothers
nonfunctional
nsaids
palmar
phenotypic
profound
testicles
testosterone
vera
##ations
##iness
charged
choosing
deformity
lines
lipoprotein
sensations
tall
##ids
##inal
##izing
apraxia
cavus
connects
frozen
gangliosidosis
irritation
qt
runs
solid
tarsal
ventriculomegaly
vertigo
##gs
antigens
destroys
faster
keeps
ph
physicians
secondhand
sporadically
tay
##ke
##ky
55
interaction
lipofuscinosis
neurodegeneration
platyspondyly
portal
replacing
skeleton
stopped
thickening
##sion
beat
bottom
cost
data
decide
discovered
distinct
echoes
episodic
hollow
immunoglobulin
itchy
mucosa
stable
subunits
48
bifid
collect
congestive
continuous
disturbances
fda
gastroenterologist
improved
polyhydramnios
screen
slows
spot
tolerance
usher
yes
##ain
47
ace
cowden
creates
cytochrome
herpes
replaced
service
##ad
anaplastic
contraction
crease
hyperlordosis
limiting
pheochromocytoma
sac
strategies
##lic
acts
combinations
malnutrition
managed
prior
restless
sponge
clouding
creatinine
fear
floor
grants
lipids
particles
punctata
stroma
ventricle
accounts
cant
chloride
duane
palms
soles
stimulate
supplies
transporter
##ard
##ions
##ries
balloon
disruption
embolism
emg
hyperglycemia
lactase
phenomenon
quantity
recurrence
shortly
sister
thigh
##atic
##iasis
##ude
##ulated
##ved
achondroplasia
holoprosencephaly
immediate
pernicious
prolapse
##am
##ti
detection
fit
macula
magnet
micromelia
oils
proptosis
radiologist
say
success
susceptible
##bone
##sa
##to
aromatase
bronchiectasis
gradual
langerhans
lessen
oxidase
pruritus
seeing
surfactant
##11
##can
arched
artificial
bartter
beating
caffeine
car
chickenpox
collects
glomeruli
hemangioma
hirschsprung
pe
stent
surgically
triangular
watchful
26
anencephaly
becoming
concentration
except
fertility
homocystinuria
insensitivity
intensity
observation
post
scabies
##f2
##rt
alternative
burden
circulating
coats
damaging
dermatomyositis
differentiation
dust
expressed
falls
hydrops
ibs
pick
proctitis
sent
##ile
##pathy
changing
clinic
deletions
detachment
ornithine
planned
sealed
secretion
stick
stromal
undergo
uv
##ria
150
aldosterone
antitrypsin
beats
gastroesophageal
glioma
globin
hepatosplenomegaly
lobes
mention
myotonic
pay
pcd
pityriasis
scrotum
sites
ui
ulna
wounds
america
brighter
bypass
epidermal
foodborne
helping
metformin
original
sphincter
trait
##land
##ub
ammonia
aware
blocking
brittle
chewing
epidermis
established
gray
green
guillain
healing
mole
ms
myalgia
paranasal
prognathia
ranges
recognize
sca
stays
synthase
wires
##ides
##ification
ankle
assistance
defined
digestion
experienced
leiden
listen
multiplex
omphalocele
predisposition
processed
showed
##emic
##ination
addison
aerobic
aps
arteriovenous
astrocytoma
border
epiphyses
macrotia
mds
metaphyses
obstructive
scanner
situs
ttp
wolfram
beverages
descent
dysgenesis
effectiveness
febrile
inactive
lipase
mosaicism
proven
sachs
sharp
triple
##a2
##ance
##ious
##late
##ments
22q11
clumps
coordinating
deaths
deleted
embryonal
ependymoma
folic
gtr
hole
lattice
opacification
prevented
protruding
repeats
stimulates
subtypes
upslanted
wound
##ior
colonoscopy
detects
interferon
plastic
raised
urgency
##omy
arise
displacement
heterotopia
highest
improving
markers
men1
mucous
offers
periventricular
protection
undescended
visible
actions
africa
al
big
breasts
carinatum
intensive
malformed
panic
preeclampsia
thyroiditis
trophoblastic
unstable
variation
##og
##s1
##ze
breaking
chills
klinefelter
microdontia
micropenis
nmri
nonsteroidal
raw
society
concerns
criteria
despite
drain
extracranial
field
folate
glutaric
glycine
lowers
prion
silver
sugars
triglyceride
wiedemann
##ii
##ner
##ox
##ur
adequate
compound
deficiencies
dermal
diamond
dvt
enterococci
epstein
funded
globulin
iiib
month
restrict
rheumatic
telecanthus
unilateral
unlikely
views
windpipe
written
##ves
120
bbb
decision
ia
osteopenia
rice
tourette
##ful
##king
##ock
compounds
connexin
disappear
extensive
force
gorlin
lenses
media
placement
repetitive
schedule
smokers
suppress
unhealthy
wrong
##ability
adjust
astrocytomas
degrees
nasopharyngeal
nuts
specially
targets
##man
##onyl
achondrogenesis
add
amyotrophic
diverticular
gingival
micrognathia
miller
nephritis
nonmelanoma
pericarditis
pregnancies
rett
rieger
tear
tendons
##cts
##ening
amaurosis
atoms
coffin
dissecans
gastroparesis
inhaled
multifocal
myelofibrosis
osteochondritis
pigmented
quick
recommendations
sports
##ography
##olysis
##ring
ad
adjuvant
brainstem
breastbone
diagnoses
dioxide
distinguish
drainage
embryo
exactly
filaments
fullness
hyporeflexia
performing
prematurely
spaces
spontaneously
stimulating
##cs
##k2
activation
amelogenesis
areflexia
cluster
cured
determining
gravis
joubert
laxa
overlapping
prompt
shorter
##ey
##ir
##oin
##op
##such
aims
ascites
cbc
consult
crystals
directed
duodenum
exchange
fetalis
neuralgia
osteochondromas
preaxial
predict
prothrombin
reverse
spreading
tensing
waardenburg
##r1
1a
acne
acyl
cigarettes
convert
crisis
eyebrows
goutieres
lyase
monogenic
morning
mt
record
refractory
spondyloepiphyseal
##ars
##ged
##idine
##like
##rium
##rn
absorbed
extragonadal
figure
fresh
hysterectomy
lesion
mask
otitis
pill
reactive
t2dm
##ily
##opia
box
converted
electrocardiogram
evident
hashimoto
hypotrichosis
lange
objects
occipital
van
##kes
##mine
##tis
angiography
cag
catheterization
cdg
column
disseminated
iiia
liquids
midline
postural
rashes
rhabdoid
rta
track
tuberous
underdevelopment
velocity
webbed
wet
##amine
##sts
arrest
bite
breakage
choroid
connected
deeply
difference
escape
indigestion
preauricular
pubic
resource
shortening
subcortical
##cytoma
##pa
abilities
cage
crohns
ed
flattened
gap
interventions
metastasis
microvascular
named
outcomes
recognized
sleepiness
williams
##idase
##l1
##nia
##old
300
baraitser
choanal
composed
conducted
correctly
determines
hepatocellular
hypercalcemia
menstruation
microtia
moyamoya
ounces
soil
spondylocostal
surveillance
washing
##ary
##md
##ore
##zed
ablation
distant
elderly
endocarditis
friedreich
hallux
initially
intermittent
let
lifelong
melanocytes
oil
recommends
ridges
said
vhl
##ates
##ow
##ula
angioplasty
applied
circulation
cup
drawn
fold
genome
hear
hypercholesterolemia
indicates
technology
valgum
workers
worsening
##azole
##ility
##pt
##son
##td
19
95
amniotic
bathroom
bluish
burns
coxa
diuretics
femur
harming
hemophagocytic
inactivation
itp
meatus
murmurs
nephrogenic
relaxation
sentinel
septum
specialize
tendon
whom
agent
falling
hirsutism
measurement
ordered
restrictive
vesicoureteral
##ified
##ocytic
alcoholic
basement
covers
emptying
genetests
heartbeats
hypopigmentation
ill
international
irritable
megacolon
obvious
placenta
pupil
ten
##ort
##tosis
accurate
articles
au
class
conduct
decades
dense
erythroderma
histories
hospitals
identification
nevi
nocturnal
osseous
pounds
pyridoxine
spasm
transplants
urge
weber
##f1
##int
##iosis
##ise
##lase
anesthetic
counts
echocardiography
erythematosus
film
infested
inward
lumbar
machines
nf1
peritoneum
postnatal
radical
sedation
subtype
urticaria
wheezing
##bi
##ist
##mb
##rd
aphasia
behaviors
deficient
driving
et
feil
hemifacial
heterogeneous
hope
microsomia
murmur
northern
overlap
private
safely
shots
stationary
temporarily
##des
##low
##pin
##romas
##ton
apoptosis
arthrogryposis
craniometaphyseal
drive
emission
expressivity
eyeball
feces
interested
keyboard
matrix
mmhg
myelomonocytic
nash
pineal
plasminogen
pus
reaching
selective
sit
stretch
ultraviolet
weill
wheelchair
xiii
##ap
adhesions
atp
carbohydrate
choreoathetosis
juice
merkel
persist
therapeutic
tibia
translocase
vitelliform
##bar
##ets
##ph
##rate
##ward
adenomas
anophthalmia
babinski
band
carious
dolichocephaly
identifying
job
mechanical
musculoskeletal
oculocutaneous
oophorectomy
osteolysis
penile
pinna
pontocerebellar
rearrangement
relationship
releases
rid
stereotactic
symphalangism
thalassemias
tracheoesophageal
tuberculosis
us
viewing
##tin
140
albright
amputation
androgen
angelman
antiphospholipid
classical
complexes
connect
phosphoglycerate
pointed
pre
proposed
reference
remember
##lc
allele
bites
brackets
cockayne
esc
flowing
gastroenteritis
gaucher
psychological
ras
reaches
scaly
tendency
winter
##ians
##ight
##n2
##nd
911
abortion
bacterium
calorie
europe
fevers
lipoproteins
lymphohistiocytosis
mediterranean
monitored
myasthenic
sections
sinusitis
stickler
synthesis
unexplained
##ath
##dh
cholangitis
chorioretinal
dystrophic
erection
fifth
gsd
hearts
instability
ketones
loud
mastocytosis
planning
positron
prader
rds
robinow
share
sis
slowed
somewhat
successfully
transducer
willi
##cephaly
##ible
##uit
##yl
29
acanthocytosis
completed
died
ectopia
fruit
limits
lying
metatarsal
participate
practice
practices
precocious
pulmonic
receives
responses
tick
vacterl
##etic
##k1
##un
aches
bleed
brca2
capillaries
chamber
depletion
eczema
fundamental
ibd
igg
inheriting
instances
lynch
parkinsons
polymyositis
prescribes
restricted
slender
thrombocytopenic
tools
units
ventilator
vur
##10
##ibility
##nts
##ny
##ons
##ood
##ution
advice
botulism
coli
cross
designed
disproportionate
hypocalcemia
hypophosphatemic
keratin
none
receiving
situations
suffer
syndromic
thumbs
transports
##ably
##ga
##h1
accumulates
bag
bardet
biedl
exaggerated
hemorrhoids
hyperhidrosis
iva
library
lobe
malrotation
merzbacher
niemann
pelizaeus
puts
reveal
septo
synthetic
tamoxifen
tenderness
testicle
underlie
varying
vii
##ases
##b2
##ering
##l2
##osarcoma
##ped
##rp
##therapy
##ties
##tt
acanthosis
aniridia
axenfeld
carried
eight
filtering
hemangiomas
hypomyelination
included
laxity
megaloblastic
mirror
moles
myosin
nature
nigricans
proportion
save
staff
surfaces
vital
voluntary
##aring
##ba
##ctal
##lin
##llar
##mo
##otherapy
##roma
##ues
adenomatous
alport
anosmia
assessment
asymptomatic
bradykinesia
bulging
cortex
hypokalemic
hypophosphatasia
johnson
leptin
lichen
meats
north
oxalate
paraganglioma
paresthesia
separates
sweats
unfortunately
vitiligo
volume
wake
yellowing
##der
##inemia
achalasia
adolescent
anonychia
chondrocalcinosis
counselor
fair
gardner
lets
leukocyte
lysosomal
multicentric
permanently
physiology
plexus
postmenopausal
score
situation
thymoma
tinnitus
##iaphyseal
##im
##odysplasia
##osa
##ras
1b
ards
autoimmunity
cardiologist
cleaning
cords
craniopharyngioma
crawling
duchenne
dysautonomia
evaluate
fabry
gadolinium
ice
iiic
leiomyomatosis
oxidative
pallor
patellar
pleura
poultry
pv
stability
stethoscope
thrombotic
toxin
zellweger
##be
##cin
##cted
##dd
##io
##jo
##m1
##mp
31
adenoma
assisted
childbirth
closure
cytoskeleton
dogs
epileptic
existing
extend
fourth
genetically
heparin
hypoventilation
intracranial
kallmann
melanocytic
mistakenly
myositis
nephrocalcinosis
neuromuscular
neuropathies
phosphorylation
pylori
responds
seconds
shot
sle
smoked
straight
visits
##gus
##logist
##ocytosis
##oses
##rophic
##xis
adipose
assist
brachycephaly
citrullinemia
daytime
decreasing
designated
eosinophils
false
fgfr3
hippel
hispanic
hydronephrosis
hygiene
leave
levodopa
lifespan
lindau
pda
programme
replication
settings
stairs
strain
tibial
unique
whipple
wolff
writing
youth
##aking
##atch
##ka
##logy
##uring
antidepressants
brachial
encodes
epithelioid
interest
islet
lait
pachyonychia
plaques
progeroid
silent
toilet
trigeminal
turning
##berg
##genic
##li
##oblastoma
##uric
androgens
antiviral
carboxylase
chemistry
creutzfeldt
desmoid
dic
distance
ease
ever
ferritin
hypopharyngeal
imbalance
jakob
maturity
nitrogen
nostrils
odor
pd
phosphokinase
poisoning
scars
shallow
shoes
swallow
treatable
treats
##per
assess
clothes
complementary
coverage
creams
description
exist
granulomatous
heartburn
li
lymphoproliferative
medicaid
methyltransferase
mowat
parietal
polyneuropathy
thinners
transitional
##fa
##gia
##ils
##ix
##moid
##ned
##ouse
##ulate
##ule
##void
85
alae
blasts
camurati
cavernous
cyanosis
dentinogenesis
differently
eastern
filamin
fissures
handle
hopkins
hydatidiform
injured
lentis
multifactorial
outward
pigmentary
psa
quarts
releasing
rises
rotates
smith
suppressor
thirst
thymic
upward
vitreous
##ane
##erative
comfortable
discharge
lcat
likelihood
mastectomy
narrows
numerous
pallister
partner
peters
segmentation
traumatic
womb
##ched
##omatosis
##ored
##ress
##ri
advise
asia
axons
barrier
braf
clinics
converts
decade
distribution
dpp
dyserythropoietic
esrd
hsp
magnesium
marchesani
md
neuron
probe
prolactin
radiosensitizers
ranging
respectively
segmental
summaries
watery
weakens
##ogenic
##ran
##use
alleles
blepharospasm
bright
cadasil
examines
exhibit
harmless
inappropriate
interactions
keratosis
lists
nephronophthisis
prepare
pure
sprengel
turns
##ges
##mal
##omelic
##r2
##und
antihistamines
arises
assembly
atelosteogenesis
background
barium
biopsies
compulsive
deliver
digits
donated
duration
egfr
fills
flexibility
fontanelles
heme
hyperoxaluria
ib
iia
leaking
milligrams
nemaline
orofaciodigital
staph
technique
tonic
troyer
widening
##aps
##dine
##graphy
##ill
asperger
awareness
brca1
brief
charge
coordinated
costs
creating
cryptogenic
dmd
firm
fungal
glucocorticoid
household
htlv
illegal
knows
lafora
microcornea
promotes
supranuclear
tonsils
woolly
##ick
##logical
##ming
##pl
##rand
##umab
aganglionic
blockages
bulge
caregivers
engelmann
ibuprofen
iib
largest
lipomas
megalencephaly
multicystic
musculature
organic
otopalatodigital
peas
porencephaly
pulse
pumping
showing
spondylitis
surgeries
tapered
urinalysis
vwd
##13
##cher
##gy
##hs
##lla
##ory
##rine
##tia
##tle
2a
adrenoleukodystrophy
canned
conducting
connection
cyclosporine
danon
dimensional
enters
error
exclusively
extremities
gerd
interpreted
linear
outcome
pacific
paternal
pili
preventive
refsum
surgeons
trichoepithelioma
zygomatic
##ats
##ect
##els
##iver
##oa
##of
##stic
aminoaciduria
ancestry
aspects
bloody
cavities
defenses
diseased
eds
erythropoietic
feels
follicles
gov
her2
hp
items
leakage
leaves
metachromatic
nipples
pachygyria
pericardium
plenty
proton
resolve
returns
rodents
salpingo
slurred
transaminases
twitching
tyrosinemia
wait
##ae
##cent
##g1
##nal
##ork
##red
##ulatory
alters
biotin
blind
cloudy
compartments
converting
floating
gone
indian
lichenoides
minimize
minute
pseudohypoaldosteronism
react
strongly
szary
xeroderma
##ast
##cular
##form
##h2
##ifiable
##sd
##sine
avms
cardiogenic
cereals
coloring
compensate
conjunctivitis
consistent
container
emphysema
erythromelalgia
galactose
iliac
jerking
lesch
lymphomas
microtubules
moebius
nyhan
overproduction
patella
placing
positively
pyramidal
relapsing
renin
resting
semen
sonogram
sotos
steady
vulnerable
won
zoster
##idation
adding
avoided
blurry
fuchs
fungi
glomerulonephritis
holes
holt
indicated
labels
locate
noise
obsessive
oram
organizing
phosphatase
pigmentosum
strengthen
swyer
xx
##ches
##ered
##ists
##lies
##mas
##ot
##q11
##rhea
##sp
##ster
##topenia
acting
actinic
alkaline
amenorrhea
ankylosing
beneficial
clumsiness
culture
definitive
dopa
downturned
droopy
facilities
gathered
goiter
hypodontia
ige
ligaments
migraines
neuroendocrine
occult
occulta
oculomotor
osteomyelitis
progressively
purpose
radiologista
rescue
scid
sepsis
south
spondylometaphyseal
sutures
tender
##ied
##losis
##pr
##tine
##unctional
advised
agency
arginine
atrophic
buttocks
collection
diplegia
ehrlichiosis
fill
geographic
government
helix
occurrence
providing
resemble
sheldon
stargardt
tight
xxyy
##17
##af
##au
##inotransferase
##js
##lm
##ng
##omalacia
##phrine
##ression
anaplasmosis
brother
cml
doxycycline
dumping
genitourinary
hypohidrotic
hypopigmented
intended
intrathecal
lots
malocclusion
multiply
mvd
neurologist
neutrophils
nosebleeds
outbreaks
pemphigus
psychosis
pumps
purple
slides
valgus
via
##duction
##eric
##esis
##logic
##oles
##opathies
##p11
##rosarcoma
##ug
complicated
convulsions
cutting
dietz
discussed
elastic
everyday
fighting
handling
heterotaxy
knowing
lennox
loeys
maxillary
measured
organization
otherwise
proteus
slowing
speed
spherocytosis
tarda
thighs
timing
visceral
##77
##ave
##hr
##iology
##mark
##med
##olytic
##rip
2008
ambiguous
botulinum
chat
compare
dimple
efforts
epo
equally
examining
experiencing
facies
filters
fragments
fumes
hyperaldosteronism
ichthyosiform
implanted
increasingly
inserting
ivb
methotrexate
milestones
native
photodynamic
reddish
remodeling
retinoschisis
sexually
sheath
shunt
spondyloepimetaphyseal
stretching
sunscreen
tag
teratoid
travelers
vestibular
yellowish
##icating
##ius
##kin
##ud
##vascular
arsenic
brought
chorionic
closed
cooking
creases
diameter
extraocular
fails
framework
gaze
hernias
menkes
millions
mnire
monitors
newer
obtained
organisms
pacemaker
perineal
photosensitivity
pol
poland
replaces
rounded
semialdehyde
suggesting
tropical
twenties
##atoma
##igenic
##lugs
##nail
##no
##ologist
##oscopy
##res
##ris
##uous
adhd
astigmatism
boost
classes
communicate
consequences
consumption
details
earliest
fee
glucocorticoids
hypokalemia
ic
infect
jeghers
kills
lymphoid
maxilla
mesomelic
misshapen
nearsightedness
peutz
preparation
rigid
rmsf
sclerae
shun
sialidosis
sloping
staphylococcus
steatocystoma
syncope
synophrys
therapist
tia
ticks
tics
tough
tubule
tubules
underdiagnosed
urogenital
write
##ator
##bacter
##ction
##d4
##enia
##ker
##obacter
##oline
##ture
1q21
angiopathy
centronuclear
conception
continuing
cream
cystocele
dolorosa
gastaut
generations
horizontal
informed
insect
ion
jewish
keratitis
laron
organizations
parasitic
patch
pdgfra
radon
relapse
running
sending
traveling
tsh
uncomfortable
varied
weakening
##ac
##esia
##imation
##inic
##lled
##nitis
##otype
##rich
##sc
##sclerosis
##sible
achieve
arachnoid
aureus
clubbing
collins
corn
cyclophosphamide
dbs
decarboxylase
ellison
endoscopic
extension
gained
genitals
hailey
isovaleric
largely
mntriers
ohs
peyronies
schizencephaly
select
sized
soap
span
specimens
strep
thinks
twisting
unsteady
zollinger
##ened
##ics
##oderma
##tors
##way
##x2
##ylate
##zer
aggregate
atopic
carrying
category
chains
chart
constant
cornelia
dihydropyrimidine
downward
drawing
fraumeni
klebsiella
laryngomalacia
marker
measles
moist
neuroacanthocytosis
oculopharyngeal
pompe
potatoes
setting
statins
unbalanced
##2b
##hi
##ire
##iva
##lanting
##mide
##x1
250
accident
accounting
acd
bean
bruises
bulbar
cap
checkups
cleidocranial
climbing
constantly
conversion
cpt
effort
effusion
electroretinogram
erythema
fungus
led
microcytic
nhpp
partington
porphyrias
pots
progeria
progressing
pulses
repaired
requiring
sacral
shared
siris
succinic
systolic
teach
treacher
wrists
##amide
##ella
##iral
##ocele
##ocyte
##ozygous
##rating
##rb
abetalipoproteinemia
acylcarnitine
adiposis
arts
azathioprine
brush
duodenal
gangrene
gel
gilbert
jampel
kit
malfunction
measuring
plate
pollution
psoriatic
readings
schwartz
siblings
supplement
surviving
totalis
versions
wheat
##coccus
##cytopenia
##don
##ectodermal
##iter
##lycemic
##ola
##oprotein
##rix
##rons
##steride
##zole
adenosine
axillary
belongs
cah
chordoma
clavicle
clonic
constriction
continued
contraceptives
cryosurgery
diary
dipstick
dying
erosions
galactosialidosis
hrt
hypohidrosis
identical
leaving
mannosidosis
mccune
medscape
myopathies
nephrectomy
nephrolithiasis
perception
portions
punctate
regain
regurgitation
reinfused
sarcomeres
sheet
staying
stronger
sunken
sustained
tar
thawed
thickness
urinating
vas
vigorous
worms
##all
##bal
##ctive
##hf
##ind
##osin
##phia
##rance
##sed
accidents
amish
chicken
cystinosis
educational
encouraged
extracellular
felt
fg
g6pd
greatest
horner
langer
latent
mistaken
najjar
oculo
orange
pair
peptic
phenylalanine
predominantly
pyloric
regimen
regulated
stand
subtle
syringomyelia
thanatophoric
thirds
townes
traditional
wagr
##a3
##ages
##ail
##bc
##bp
##bular
##cious
##ginal
##iocarcinoma
##lication
##mer
##ocardium
##ogram
##ples
##sin
##tory
##tous
##try
advances
anytime
bisphosphonates
bpd
butter
carcinomas
carney
cda
clavicles
co
connecting
cri
deaminase
dermatofibrosarcoma
du
excretion
exertion
financial
global
hypophosphatemia
hypothalamus
ischemia
majeed
offered
oi
paper
periodontal
plant
predispose
protuberans
randomly
relieving
rotor
seeking
senses
stoma
supplementation
sympathetic
transmits
transplanted
unit
varicella
waddling
wild
womans
xanthomatosis
##aging
##ber
##ess
##estation
##fr
##lower
##odystrophy
##remia
##thing
##ulus
15q13
adenocarcinoma
alexander
batten
brocks
cohen
communities
dextrocardia
dowling
friend
gad
lacking
meckel
miscarriage
models
mthfr
pairs
possibility
ratio
stabilize
tablets
tetrahydrobiopterin
thrombocytosis
tolerate
undiagnosed
##aa
##ak
##cytosis
##ipoproteinemia
##min
##phalangeal
##roscopy
##sr
##that
##tn
##zing
2b
angioedema
apart
aura
autistic
bronchi
cmv
coenzyme
cones
consume
consumers
cyld
deficits
degenerative
dilatation
direction
evoked
fibromatosis
glasses
hardening
histiocytoma
hoarse
hypersensitivity
hypomagnesemia
incompatibility
irritated
ketoacidosis
melanin
ncl
nodular
noted
porokeratosis
posture
potocki
precautions
precise
pronounced
proteinosis
psychomotor
rabies
regulatory
rehab
robin
sacrum
sigmoidoscopy
subacute
tgf
thorough
twitches
uvula
vasculature
##active
##any
##cks
##cm
##ective
##ell
##ew
##lation
##llary
##lobin
##may
##my
##nds
##np
##ococcal
##pping
##sal
##usal
##ws
130
adverse
ascending
c3
disabling
disaster
discoloration
dislocations
drash
efficiently
enteropathy
homes
hospitalized
hurt
inactivity
lewy
mission
pull
rhizomelic
russell
salts
screened
sialic
sibling
suicide
thyroxine
tightly
##bl
##cg
##elial
##erine
##inary
##inib
##laxis
##lls
##lp
##nis
##onia
##sing
##ura
##ute
##vitis
atrioventricular
brody
cafe
col2a1
collapse
created
cvid
deferens
discrimination
electric
electrolytes
emotions
gerstmann
glut1
gonadotropin
grouped
gynecomastia
hps
humerus
hunger
hydroxysteroid
ih
ipf
jobs
messages
methemoglobinemia
myhre
odors
palmitoyltransferase
pap
pharynx
phases
polio
pyelonephritis
recycle
rhythms
schimke
schwannomas
schwannomatosis
stands
took
tried
uncontrollable
vaccination
weather
wine
##12
##ert
##gry
##ify
##j
##ley
##ology
##oon
##pic
##rils
##ural
##wed
##zoospermia
accelerated
acupuncture
awake
beckwith
brisk
canavan
cephalopolysyndactyly
content
cytomegalovirus
daughters
denys
diverticulitis
dyskeratosis
earlobe
encephalocele
fetuses
final
grain
greig
hall
hiccups
juices
leukodystrophies
marked
neurotransmitters
nicolaides
packaged
paraparesis
playing
torti
transposition
whereas
##atin
##b4
##blasts
##iation
##ivation
##nist
##oad
##odular
##otics
##p1
##toid
##val
basilar
burn
capacity
cardiofaciocutaneous
circumference
circumstances
cosmetic
crigler
crowding
demyelination
dozen
flared
forearms
genereviews
gingivitis
glutamate
grafting
implant
injure
investigation
japan
leishmaniasis
malfunctions
marburg
mercury
mildest
milroy
pads
pains
percutaneous
petechiae
progesterone
progressiva
represents
rods
scarred
shaking
temporal
transported
underarm
##asm
##co
##dle
##ee
##ern
##gnition
##iform
##ino
##iting
##l4
##olar
##osal
##pp
##time
##trate
##ulfatase
##ult
##worm
activates
arch
bananas
barth
behcet
bigger
calcinosis
cheese
clues
cochlear
col4a1
companies
costello
counselling
expand
familiar
fist
hemoglobinuria
investigating
larsen
malaria
mannose
mosquito
natal
outlet
passage
pupils
referral
rubella
sjogren
stream
tv
worker
##1a2
##a4
##ans
##atching
##ater
##cutaneous
##eria
##gic
##hes
##itus
##ject
##nectomy
##nscious
##ogen
##pressant
##text
##toma
##tter
afibrinogenemia
alveoli
apert
ar
arthropathy
audience
autoantibodies
bell
butterfly
cftr
concern
connections
contents
crest
cry
curved
daughter
dehydrated
dihydrolipoamide
dried
drooling
dryness
eaten
excreted
exudative
finally
giedion
graft
helped
hemangioendothelioma
hematologist
hermansky
hyperammonemia
hypochondroplasia
impairing
incisions
isomerase
madelung
maffucci
marriage
nasopharynx
pauses
peanut
pediatrician
philippines
phlebotomy
phone
polymorphisms
pseudohypoparathyroidism
pudlak
retain
steatosis
syrup
tap
teenage
traps
vanishing
vitreoretinopathy
weaker
workplace
##asis
##ermann
##ever
##ice
##lr
##sk
##t3
##take
##uts
2010
2q37
alterations
apply
assistive
baylisascaris
burst
delta
errors
estimates
fairly
farber
fasciitis
fryns
glutathione
hyperinsulinism
isolation
lentigines
oranges
personnel
pleurisy
pool
preparing
primordial
published
quite
reticulum
retroperitoneal
sella
sessions
sickness
slower
snack
tells
trinucleotide
triphalangeal
viii
##7a1
##bility
##cellular
##fy
##gf
##ient
##iss
##litis
##llent
##m2
##mit
##ngeal
##nic
##noma
##ok
##osomes
##pes
##rna
##romatosis
##tial
##vian
##zine
18q
acidic
alternating
angle
ashkenazi
backflow
burkitt
cerebrotendinous
cheek
coffee
convex
crying
dead
debilitating
dilation
erythropoietin
escobar
exists
favorable
fibula
fmr1
forearm
gags
harbor
hashimotos
histone
holding
hydrogen
hypermetropia
hyperuricemia
igf
insert
ix
krabbe
lamellar
mammogram
mvp
numb
opposite
peptide
perineum
plants
plasmapheresis
prepared
pws
ragged
ready
roberts
scanning
schistosomiasis
seven
speculate
stressed
sugary
tearing
thicker
threaded
truncal
uh
undercooked
warts
##ame
##asia
##cil
##cling
##ex
##har
##hyseal
##ifies
##ising
##lasia
##ncy
##ondromatosis
##ried
##tation
##tum
36
becker
biotinidase
bulbous
buy
choking
cocaine
delivered
dosage
feed
goodpasture
holds
kearns
label
liddle
lies
looked
lowry
lp
lymphocyte
modification
offspring
ollier
ophthalmologist
pilaris
policy
ra
residual
rotavirus
sandhoff
sayre
therapists
##by
##chondrogenesis
##ep
##ery
##glasses
##idoses
##iuretic
##jugated
##lizing
##lonus
##njugated
##odulators
##oring
##put
##ressed
##ritis
##rodactyly
##ten
##yx
activate
adhesion
agammaglobulinemia
allergens
anticonvulsants
asymmetric
beams
blackfan
bony
chromatin
coding
contagious
degos
domain
exploring
formerly
forties
friction
gloves
hcg
hhs
hnf4
holter
hydroxyurea
impairments
interprets
irritants
jmml
joins
keratoconus
macule
makeup
nor
openings
outermost
pendred
popliteal
pth
rubber
slight
sputum
sticky
supraorbital
tetrasomy
tricuspid
underwear
vermis
##ards
##back
##eat
##ft
##gd
##gregation
##igh
##ignment
##izes
##let
##lk
##nn
##ogens
##oidal
##oney
##ovirus
##oxide
##phosphate
##uce
##uted
6q24
abscesses
baked
baller
cav3
cherubism
couples
cousin
derived
diverticulosis
eec
empties
enjoy
federal
follicular
foramina
fumarase
galactosemia
gerold
gm2
hlh
hydroxyglutaric
independent
lifting
manual
p450
peak
pi3k
registered
restriction
reye
rituximab
salty
scale
schindler
serve
similarly
soluble
stevens
sweet
thousands
tortuosity
transcarbamylase
trimester
unwanted
vulva
##ff
##hia
##hn
##istic
##ith
##lide
##orate
##oration
##page
##raphic
##riae
##rinted
##ters
##uh
##ulmonary
##urgical
##versible
##when
amelia
arginase
arnold
associations
branch
bronchoscopy
calcifications
capsule
carpenter
cats
contractural
discovery
embolization
fibular
gnas
granuloma
hematopoietic
hyperbilirubinemia
hyperprolinemia
irritate
junctions
lean
localization
minimal
modify
moisture
mortality
ndm
neutrophilic
orthopedic
paraplegias
parkes
passages
pcos
phospholipids
pink
preventable
pseudoachondroplasia
push
repairing
splenectomy
sternum
tightness
uk
xyy
##ense
##gate
##iated
##ished
##isone
##itive
##lity
##mbranous
##midine
##mission
##most
##ological
##orted
##q24
##rtisone
##ser
##ugh
##vd
##zil
27
ahead
appendix
auriculo
bands
behet
brings
buschke
canada
east
establish
glass
hallmark
hemolysis
implants
japanese
l1
lighted
mal
mix
modified
neuromyelitis
ohdo
optica
origin
phosphorylase
promyelocytic
race
racial
relievers
scapuloperoneal
shprintzen
snps
strict
swings
synovial
tetra
tracheal
trichothiodystrophy
unborn
universalis
werner
widen
xxx
##1a
##bbing
##ectable
##em
##ents
##eptic
##gc
##illary
##ional
##ivity
##lein
##lioma
##minoma
##odilators
##orescent
##osed
##pv
##rtical
##sary
##set
##uate
##ucted
##ulae
3a
accept
angiogram
anticoagulants
birt
clubfoot
conservative
dermatosparaxis
diastolic
directions
electronic
etc
expect
fits
granulomas
hennekam
hies
hogg
hyperfractionated
hypermelanotic
individualized
infective
infrequent
kar
ko
larvae
limitations
methionine
net
nets
neutral
news
occiput
oligohydramnios
otc
paragangliomas
pc
polyuria
progestin
protecting
pten
relation
resolves
ringing
shaffer
superficial
tapeworm
task
tawil
thoroughly
transfer
underlies
vara
voiding
##48
##ains
##bia
##born
##ccal
##d2
##ene
##eter
##eum
##geal
##metry
##oplakia
##rily
##rophin
##titis
##virus
2nd
5q
600
apc
beneath
book
brooke
castleman
cebpa
chester
collagenous
collapsed
epidermolytic
fibronectin
gently
gonadal
got
il
immunoglobulins
kennedy
killian
lacrimal
macroglobulinemia
mandibulofacial
mice
microcephalic
model
nucleotide
nurses
papillary
pierre
pinworm
prolidase
puncture
rising
rural
scope
sensor
serving
sizes
spiegler
supporting
trenaunay
unidentified
urgent
worry
xy
zika
##bital
##cle
##cot
##cp
##den
##eration
##fulness
##hal
##hepatic
##hoe
##ht
##ica
##idal
##idosis
##izers
##minutes
##oms
##ones
##over
##rgic
##sic
##ularis
##xia
28
400
afp
anorexia
anxious
avm
bo
bowed
braces
branchiootorenal
breastfeeding
calvarial
capital
cereal
challenges
coordinate
cpap
dislocated
donnai
emery
encourage
erythrocytosis
glomerulosclerosis
gracile
harlequin
hookworm
hospitalization
imatinib
impotence
india
inhaling
isnt
junctional
lights
misdiagnosed
modest
mondini
mouse
mrna
neurogenic
nucleotides
organism
oxidoreductase
pbs
phototherapy
pyrophosphate
radioulnar
ruvalcaba
simpson
spend
squeezing
stillbirth
temperatures
teratomas
vasculopathy
waxy
webbing
ws
##70
##ace
##algia
##arate
##balamin
##bile
##cariasis
##eed
##hing
##icles
##icular
##inant
##itrate
##licated
##men
##mes
##mplicated
##nut
##table
##tar
##ubular
##unt
##used
##witch
abscess
accessory
adams
annual
bipolar
bound
cardiologists
choroideremia
choroiditis
combines
consuming
contributing
cooked
couple
demyelinating
deposited
dicer1
documented
epidemic
evaluated
experiences
facioscapulohumeral
fistulas
frontonasal
genomic
goldberg
guidance
hundreds
hyperkalemic
id
incontinentia
investigators
maltophilia
ml
mucosal
multisystem
myofibrillar
myopathic
nonalcoholic
nonspecific
oliver
ophthalmoparesis
oropharynx
ossificans
paraneoplastic
pdgfrb
pigmenti
promptly
reportedly
rubra
supravalvular
syphilis
torticollis
urachal
users
west
##agia
##aryngeal
##atal
##borne
##cating
##da
##fi
##flated
##gn
##gulation
##imeter
##ining
##ipa
##ken
##lusion
##mf
##nsis
##ocrine
##oic
##oping
##ound
##py
##rab
##ulator
##usen
aching
agonists
andersen
appearing
appropriately
arteritis
bend
bent
biotherapy
bounces
cherry
cleveland
context
cystine
dermatoglyphics
destroying
disc
dizzy
dreifuss
drowsiness
dyspnea
eh
endemic
fitting
flashes
flna
flushing
foul
freeman
germline
gwas
gyrata
halves
histology
hypothalamic
infestation
intrinsic
joined
kept
legal
measurements
multi
networks
nighttime
outbreak
outdoors
overseen
pantothenate
performance
presents
radiosurgery
reflex
regimens
reproduction
responding
resulted
retinoids
salmon
separation
serotonin
slide
smear
stockings
tef
uncontrollably
valga
ventilation
vlcad
##activity
##dm
##edema
##ens
##hin
##inated
##inopathy
##ited
##its
##nel
##od
##ost
##otide
##pose
##q23
##sive
##uction
##une
##unity
22q13
acquire
alpers
beef
concentrating
corrected
cramp
horn
importance
inch
infertile
intercourse
itch
neuralgic
neuroaxonal
polyglucosan
polymerase
potentials
premutation
recognizing
riley
senior
spondylothoracic
strains
strategy
teen
timothy
torso
towards
toxoplasmosis
ubiquitin
##36
##bial
##enib
##etti
##glottis
##helial
##iating
##ibrin
##ich
##iogram
##ives
##lain
##mpromised
##ntal
##ogenesis
##okinase
##opathia
##opy
##osmia
##ostomy
##our
##oxidase
##pine
##ple
##romised
##t2
##ua
##uration
##yers
##ys
acrocyanosis
administered
aggravated
angiogenesis
arbs
arx
avoidance
binswanger
biology
caudal
coalition
cofactor
colpocephaly
concentrations
crises
deal
doppler
ebv
elevation
generate
glioblastoma
henoch
hepatoblastoma
homocysteine
hydroxyacyl
hyperextensible
indians
infarcts
influences
islander
isodicentric
judgment
leaks
lymphangiectasia
lysine
merck
merrf
metal
mineralization
mini
myoglobinuria
oligodontia
ollendorff
ounce
papules
peroxisomes
pneumonitis
polg
proliferative
retrognathia
scheinker
slc4a1
snacks
subsequent
tee
thirties
tietz
triggering
word
wormian
xanthomas
zinc
##anine
##fficient
##hosphate
##ike
##ip
##ister
##iving
##mination
##ora
##ores
##rated
##rg
##scribing
##ulations
##ullous
9q22
alcoholism
alleviate
amp
applies
arrhythmogenic
barrow
challenging
colds
cuff
cultural
cysticercosis
cytogenetic
detectable
dieker
endometrium
enhance
fibrodysplasia
herpetiformis
hoarseness
illicit
isotretinoin
ligase
norrie
oculodentodigital
oligodactyly
pesticides
port
raynaud
realize
smelling
snoring
succinate
sucrase
suppression
torsion
zone
##art
##burn
##c2
##cytic
##ibular
##ina
##inosis
##kh
##mitted
##more
##olism
##ologic
##onin
##rol
##ropathic
##uffy
##ulosis
##umes
##ven
##version
##yte
absorbs
achromatopsia
addressed
adds
advance
ai
aip
amniocentesis
anticonvulsant
arent
arteriopathy
asd
asked
beds
bronchiolitis
confused
congestion
consistently
coronal
darker
diapers
ea
ellis
fh
fibroblast
fix
french
ganglioside
gloved
hypochromic
hypotelorism
icd
inject
investigations
junction
kb
kuskokwim
lived
locations
macroglossia
massage
median
mendenhall
metaphysis
meter
object
originally
osteodysplastic
philadelphia
pit
pml
power
prevalent
prostatectomy
protoporphyria
psychologist
rabson
raccoons
relieved
reversed
routinely
rubbing
scn4a
septa
street
stuck
sucrose
thinner
thoughts
triad
upset
volunteers
worm
##anthine
##blastic
##ching
##clerosis
##cral
##dy
##etosis
##g6
##isobutyric
##ller
##llin
##lous
##mis
##morphic
##mus
##olinesterase
##uencing
##ugs
accidental
actual
am
armpits
arranged
bannayan
bart
bethlem
broccoli
cellulitis
eosinophil
ethical
extended
facts
filariasis
focusing
isomaltase
korsakoff
la
leucine
leydig
medulloblastoma
methylglutaconic
migrate
mllerian
pear
periodontitis
phobia
pku
pmm2
relevant
retraction
simply
sox2
sturge
tarp
transthyretin
underweight
wernicke
worn
##amines
##anger
##arp
##atched
##atory
##cardia
##cation
##cerebral
##giitis
##hall
##hd
##hesis
##ication
##iferative
##inished
##ipe
##itary
##itate
##lates
##lers
##net
##ngectomy
##nsion
##oked
##ometaphyseal
##omia
##oppy
##ories
##ounding
##p2
##ram
##ros
##sembling
##tuzumab
##ump
##yrate
00
2014
advantage
antimicrobial
assay
bounced
breads
bronchus
calculator
catch
chagas
collarbone
confined
cow
crucial
crystalline
dissolve
dorsal
drooping
eliminating
entering
envelope
erdheim
ethnicity
examinations
exostoses
expanded
extrapyramidal
fgfr2
flare
floss
gliomas
gonads
granules
greek
heard
hematocrit
hfe
hypercalciuria
hyperkalemia
immunohistochemistry
jee
koolen
lubricated
magnets
manifestations
meningioma
metastasize
mutase
oncocytoma
pitched
pitt
reacts
rhizomelia
rippling
sca2
sedatives
serologic
shed
sneezing
steroidal
stimulants
straussler
survivors
t4
thrombophlebitis
tighten
tis
trap
visiting
vries
##dor
##eze
##gue
##iest
##inish
##ioninemia
##jects
##osome
##plicated
##pped
##regulation
##rips
##trophy
##ulum
##unction
##ush
3rd
anger
bread
chops
conventional
coping
correction
crackers
distichiasis
edges
elsewhere
emergencies
expensive
follicle
foxg1
headedness
heredity
homologous
influenza
inhibits
kabuki
loci
locus
masses
melas
mevalonate
myelomeningocele
neurodegenerative
nine
nondisjunction
partly
pouch
root
rubinstein
sad
secrete
seminoma
spheroids
swimming
taybi
theory
yogurt
##0s
##20
##aver
##bt
##cf1
##che
##chs
##cies
##cretin
##ctly
##ght
##gree
##hale
##ham
##honic
##ikrein
##inate
##ital
##key
##krein
##long
##mented
##mpression
##olimus
##osition
##osseous
##otarsal
##otomy
##pice
##pit
##pithelial
##pm
##ptic
##raw
##right
##rins
##tment
##trin
##usion
acatalasemia
adcy5
adenine
agglutinin
alert
anticipation
arches
barrett
besides
california
calling
contained
cushings
definition
der
desire
dexamethasone
dihydropyrimidinase
drpla
elasticity
endocrinologist
evaluating
fifties
flaps
freckling
gaining
hantavirus
intravascular
intravenously
joining
killer
ks
labor
lenz
malaise
mistake
mtor
neurosyphilis
nits
olivopontocerebellar
pad
pets
polyglandular
purine
races
reasoning
relapses
sedimentation
shellfish
socket
solving
statistics
strands
supernumerary
tailored
tbm
ter
thalassaemia
told
toothbrush
tos
trapped
underactive
underside
watching
wells
yeast
##ces
##cn
##door
##ear
##ford
##formation
##if
##iling
##illus
##inase
##ites
##kers
##ki
##lating
##lement
##nial
##oanal
##orm
##oside
##osing
##purine
##roscopic
##rrhea
##rusted
##totoxic
##uation
##uckle
##upervised
##utes
##vention
abundant
acetylglutamate
authors
branchial
campomelic
cerebrum
collectively
demonstrated
detecting
differentiate
digested
discover
doors
dystrophies
emanuel
gastroschisis
glanzmann
griscelli
hamartoma
heritable
ingredients
invade
kbg
leukonychia
lowest
lundborg
lyme
mcleod
meesmann
myh9
partners
pearson
peeling
pharyngitis
promising
reached
recombinant
rodent
sepiapterin
son
surround
survey
unverricht
western
withdrawal
##6a2
##aks
##ason
##chester
##chy
##day
##glioma
##hthalmos
##idrotic
##ig
##imal
##istributed
##liable
##lobulinemia
##oken
##olent
##otonia
##otropic
##rade
##rh
##rity
##rotomy
##statin
##tary
##tate
##tiva
##truction
##urp
##uses
##ust
##wards
2009
academy
aceruloplasminemia
agencies
assemble
attaching
beer
bicarbonate
biochemical
branching
cabbage
caffey
calcitriol
calf
categories
considering
consultation
curve
curves
cycles
cystoscopy
delusions
dhd
dietitians
differs
digesting
drd
eda
electrodes
experimental
exposures
failed
fire
flnb
fuse
galactosidase
genomics
glial
gpi
harden
hemispheres
hispanics
hypouricemia
ivig
jak2
jervell
kleefstra
leukopenia
lighter
lightheadedness
mandible
mci
meiosis
methyl
mfh
moderately
monounsaturated
mra
neu
nicotine
nielsen
nonspherocytic
nothing
oatmeal
occasional
odontoid
opinion
peroxisomal
polar
polyunsaturated
precursor
preferred
programmes
prune
pseudohermaphroditism
rarer
reabsorption
rhabdomyolysis
sa
scales
spray
taps
texture
tnf
transporting
tty
undergoing
undergrowth
underneath
unpleasant
urodynamic
varum
vegetable
warmth
##92
##ames
##ap1
##bin
##bling
##duce
##eral
##fer
##fman
##gel
##genetic
##hart
##hip
##ices
##igs
##ilar
##ilt
##initis
##isplaced
##kinase
##lastic
##m3
##metric
##mopathy
##nf
##olemia
##onate
##p3
##print
##related
##ropion
##sibility
##sinemia
##thioninemia
##ulates
##yoshi
andermann
anhidrosis
antiplatelet
antithrombin
apples
aqueduct
bathing
ca
carbamoyl
cheilitis
cholesteryl
clinically
cm
college
creveld
decay
dentures
eligible
epithelium
fertilized
filtered
haven
hyperekplexia
hypoparathyroidism
induction
instruments
islets
kingdom
lama2
lectin
linkage
mandibuloacral
mantle
methylbutyryl
multiminicore
neighboring
panniculitis
paying
presentation
prophylactic
purposes
reconstruction
rejection
robinson
rothmund
row
schinzel
snyder
soreness
stapes
steatohepatitis
testis
thomson
thrombasthenia
trout
##73
##a1a
##ade
##amic
##ctation
##dom
##dp
##factory
##fd
##fenib
##folded
##g2
##grow
##iff
##iring
##irt
##kson
##lastin
##lexor
##lipidemia
##loroquine
##lostomy
##lus
##lycan
##mc
##minophen
##ndibular
##nosine
##olol
##omandibular
##oretinal
##otal
##plegia
##rae
##rates
##struct
##tp
##transferase
##uded
##ulfate
##una
##ux
##vc
##vin
##where
##yotonia
##yryl
##zide
3p
absorbing
achieved
adamts13
adnfle
aggregates
agitation
alteration
backs
bedding
bedtime
bevacizumab
births
brains
brugada
cabg
carotene
cataplexy
challenge
chemoembolization
chondrocytes
clicking
closer
concentrated
consist
crps
dysmetria
encephalomyopathy
ensuring
epistaxis
equal
erythrocyte
fraser
fukuyama
fxtas
generated
gli3
hbb
histiocytes
hygroma
imprinting
inadequate
independently
irregularity
jejunal
johns
lamp
lordosis
malignancies
maternally
mistakes
myelitis
necrotizing
nijmegen
noises
notch
obliterans
occlusive
opca
overcome
overly
pah
papillomavirus
parenteral
participants
pathologista
pinpoint
polychondritis
powerful
preparations
prnp
projections
proline
purplish
radiofrequency
represent
request
requirements
rt
selenium
shaft
sheep
sparing
sub
supervision
teenagers
tension
tias
titin
virtually
wire
wolman
##air
##amoeba
##cap
##cid
##clear
##didate
##dontia
##enoid
##fense
##gging
##hone
##idity
##iffer
##itation
##ked
##lf
##live
##muscular
##nomic
##norrhea
##nosis
##nteric
##ode
##ofacial
##olipid
##omegaly
##posing
##rm
##rodontia
##rolithiasis
##romise
##rophil
##sels
##sides
##tail
##tensive
##tically
##tives
##tox
##uck
##uclear
##vate
##ver
##vicular
##vor
##ysplastic
aa
adopt
bases
bronchopulmonary
cascade
clump
consumed
cystitis
deposition
disappears
disproportion
dysmorphism
elasticum
endometriosis
endoplasmic
guanidinoacetate
hirschhorn
hives
hydratase
hypogonadotropic
ingestion
instance
insufficient
interval
intervertebral
jacobsen
kaufman
ligand
maple
megalencephalic
meningocele
messenger
molybdenum
mumps
myd88
nager
ne
neuroferritinopathy
neurogastrointestinal
neuroleptic
neurotransmitter
noticed
offering
overactivity
phenylketonuria
poison
preferences
prosopagnosia
pseudoxanthoma
quarter
rapadilino
rat
reasonable
relaxed
sampling
sand
sensing
sight
sooner
swell
toxoplasma
twin
uneven
valine
veterans
vohwinkel
vomit
waldenstrm
warburg
wave
wolf
##!
##"
###
##$
##%
##&
##'
##(
##)
##*
##+
##,
##-
##.
##/
##:
##;
##<
##=
##>
##?
##@
##[
##\
##]
##^
##_
##`
##{
##}
##~
##®
##°
##β
##μ
##–
##—
##‘
##’
##“
##”
##⁄
##−
##≥
##�
