[PAD]
[UNK]
[START]
[END]
!
"
#
$
%
&
'
(
)
*
+
,
-
.
/
0
1
2
3
4
5
6
7
8
9
:
;
<
=
>
?
@
[
\
]
^
_
`
a
b
c
d
e
f
g
h
i
j
k
l
m
n
o
p
q
r
s
t
u
v
w
x
y
z
{
}
~
®
°
β
μ
–
—
‘
’
“
”
⁄
−
≥
�
the
of
and
in
to
is
or
are
for
that
with
may
have
be
can
people
as
symptoms
your
this
blood
you
on
these
what
an
disease
from
by
syndrome
condition
cancer
if
patients
symptom
##s
also
diabetes
information
how
treatment
it
signs
gene
not
other
type
who
cells
number
which
genetic
one
body
has
frequency
often
risk
more
cause
when
some
at
90
available
health
many
called
about
study
heart
such
50
affected
sign
25
medical
most
cases
they
usually
include
rare
cell
clinical
mutations
therapy
care
common
no
their
autosomal
were
disorder
all
than
human
problems
inherited
insulin
found
up
but
glucose
high
individuals
surgery
help
skin
because
tests
use
following
treatments
will
first
do
different
protein
occurs
examined
listed
trials
doctor
phenotype
been
fraction
ontology
levels
brain
each
specific
there
abnormality
causes
into
means
genes
used
after
medlineplus
sometimes
diagnosis
children
much
changes
testing
##ing
test
muscle
system
another
caused
should
based
during
kidney
recessive
small
loss
tumor
deficiency
types
person
factors
normal
example
form
provides
pain
had
group
through
bone
two
part
severe
management
associated
time
conditions
related
liver
develop
low
only
however
##d
look
occur
inheritance
##ed
tissue
includes
both
short
radiation
seen
new
family
abnormal
list
development
pressure
certain
below
need
second
prevent
age
take
any
dominant
including
physical
disorders
make
result
total
features
stage
being
lead
eye
medicines
early
before
feature
resources
comes
percentage
diseases
known
table
activity
control
women
out
weight
european
lower
estimate
terms
long
drug
##a
sugar
healthy
over
collected
function
mutation
##ly
database
tumors
chemotherapy
rough
definitions
frequencies
approximate
orphanet
fractions
growth
hpo
dictionary
linked
increased
typically
chromosome
research
get
childhood
between
important
abnormalities
infection
life
damage
developing
affect
treated
results
congenital
infections
registry
where
spread
history
##e
years
child
proteins
failure
several
urine
copy
like
chronic
lung
its
tissues
medications
drugs
show
treat
diagnose
whether
lymph
check
pattern
although
immune
well
see
parts
affects
less
taking
done
impairment
cholesterol
even
within
making
provider
find
diet
various
having
likely
primary
##y
bones
anemia
too
birth
was
hypoplasia
increase
muscles
without
organs
nerve
reduce
dna
seizures
very
hearing
##t
unknown
those
does
hormone
studies
dysplasia
diagnosed
vessels
large
weakness
vision
review
food
procedure
national
patient
back
percent
while
trial
##1
role
factor
characterized
red
become
onset
due
complications
diagnostic
individual
level
them
using
stroke
helps
amount
might
disability
effects
breast
kidneys
chest
side
multiple
intellectual
forms
counseling
fluid
day
involved
so
researchers
given
adults
##l
present
areas
familial
fat
right
carry
enzyme
mouth
beta
movement
enough
three
eating
eyes
down
work
##es
same
##al
made
##er
bladder
foods
standard
needed
higher
progressive
pregnancy
instructions
under
energy
offer
improve
non
bleeding
lungs
men
keep
change
spinal
copies
general
##2
address
rehabilitation
uses
parents
mild
hair
neck
remove
facial
##r
appear
exercise
##n
joint
way
experience
leukemia
few
process
palliative
plan
better
acid
renal
around
possible
production
smoking
talk
##in
causing
identified
older
screening
atrophy
dystrophy
services
lifestyle
hereditary
among
ways
least
especially
neurological
10
attack
chance
serious
head
altered
effective
tract
nervous
white
mutated
reduced
stature
sleep
inside
active
legs
cannot
flow
recurrent
obesity
exam
skeletal
inflammation
face
##i
families
pancreas
oxygen
##m
##p
stop
term
muscular
medicine
options
000
chromosomes
institute
months
eat
area
size
adult
feet
lymphoma
nci
reported
urinary
cord
follow
ataxia
breathing
fever
##3
go
sex
males
tube
nasal
t2d
complex
prevention
upper
major
##o
finger
parent
marrow
makes
every
leading
acute
infants
then
countries
defects
abdomen
away
ask
generally
doctors
females
prevalence
iron
nodes
persons
arteries
re
characteristic
hand
severity
abdominal
speech
others
sample
respiratory
ii
death
normally
getting
lack
increases
particularly
regular
medication
autoimmune
intestine
biopsy
range
leads
teeth
depends
nose
additional
stomach
begin
aplasia
know
oral
search
light
decreased
ability
stem
single
taken
support
either
vary
artery
delayed
don
removed
produce
##h
bacteria
hands
provide
later
defect
feel
grow
play
pulmonary
##ation
best
##ic
commonly
combination
population
resistance
thyroid
palate
##g
alcohol
substances
##b
myopathy
hospital
ray
stress
rate
##c
team
problem
sufficient
##us
extra
prostate
baby
encyclopedia
central
addition
receive
delay
calcium
nerves
coronary
neuropathy
similar
providers
imaging
year
days
vomiting
receptor
genetics
nih
cleft
infancy
arthritis
cognitive
learn
scan
ears
foot
set
diarrhea
considered
described
external
wide
hormones
must
slow
swelling
water
throughout
30
place
times
main
manner
movements
environmental
location
now
impaired
ear
resulting
difficulty
require
hypotonia
states
##ia
developmental
20
underlying
special
##on
##is
episodes
thin
malignant
mental
adulthood
injury
located
hypoglycemia
motor
good
arms
alpha
above
think
overweight
summary
virus
cure
approximately
produced
healthcare
transplant
poor
##6
iv
gland
young
appears
hours
vein
once
procedures
gestational
united
antibodies
substance
response
vitamin
excess
formation
involves
avoid
weeks
working
##ion
come
education
needs
deletion
key
thought
acids
name
cerebral
feeling
pituitary
tested
could
until
##k
public
able
longer
move
mitochondrial
##4
bile
abnormally
born
carcinoma
current
fats
late
treating
contact
attacks
dose
variants
diabetic
distal
social
hepatitis
benign
dry
##ity
estimated
peripheral
iii
spreads
digestive
home
still
walking
microcephaly
carrier
pregnant
recommended
difficult
rarely
exposure
infected
structure
glands
want
ovarian
amounts
block
continue
enlarged
hard
organ
groups
sarcoma
together
colon
open
stages
functions
structures
joints
near
limb
metabolic
sodium
clots
complete
visual
adrenal
bloodstream
fatigue
website
cancers
microscope
per
targeted
currently
lip
recommend
valve
four
threatening
he
half
unclear
amino
bowel
case
balance
live
begins
inflammatory
juvenile
depending
optic
region
detect
hypertension
frequently
scoliosis
narrow
order
questions
depression
develops
further
frequent
carriers
necessary
section
drink
center
identify
suggest
##5
daily
followed
spine
##en
members
break
fingers
growing
15
activities
essential
own
prognosis
elevated
steps
exact
illness
pictures
soft
manage
products
pass
middle
shaped
buildup
dystonia
sudden
cardiomyopathy
responsible
properly
slowly
professional
she
try
give
outlook
target
air
molecules
decrease
shown
infantile
male
safe
dialysis
fatty
affecting
presence
limited
material
particular
studied
always
intestinal
epilepsy
ultrasound
##or
contribute
nausea
ct
gastrointestinal
##ate
determine
laboratory
signals
trouble
bridge
dehydrogenase
hemoglobin
off
we
instead
significant
##7
40
cavity
relieve
pancreatic
spastic
hernia
wall
clear
measures
quality
close
broad
directly
effect
moderate
action
##tion
larger
start
enter
female
learning
##an
##f
developed
internal
paralysis
periods
association
needle
potential
yet
just
starting
against
outside
past
cardiac
left
difficulties
increasing
night
signaling
removal
cirrhosis
feeding
fibrosis
antibiotics
country
systemic
##ies
tomography
platelets
recovery
hodgkin
worldwide
injected
insufficiency
free
tell
degeneration
dysfunction
involve
##le
dental
preventing
nearby
##ry
##ting
greater
metabolism
surgical
varies
##able
smoke
cataract
functional
sure
transcription
##9
skull
would
end
populations
regions
damaged
##ness
weak
stay
60
almost
becomes
build
release
potassium
doesn
dietary
absent
spleen
tend
limbs
t2dm
thus
worse
asthma
minutes
mri
nutrition
arm
##um
little
sick
week
##0
##osis
absence
cysts
retardation
since
american
scientists
breath
##ase
anti
##ment
therefore
fasting
rectum
acquired
obese
##ive
lesions
lining
retinal
widely
excessive
lose
completely
hdl
100
call
checked
milk
vessel
future
average
measure
quickly
glycogen
neurons
regulate
toes
rapid
systems
access
sexual
##ous
dementia
inherit
mellitus
prominent
salt
self
monitoring
nuclear
kill
mody
began
last
plays
surface
corneal
node
variety
##ine
binding
hepatic
##x
anxiety
nystagmus
producing
tooth
##itis
protect
appropriate
pneumonia
woman
behavioral
evidence
goal
intake
fast
prenatal
rest
contain
analysis
repair
shows
why
depend
rays
osteoporosis
sclerosis
whose
create
prescribe
progression
urethra
whole
meal
passed
primarily
reach
supported
visit
hemolytic
isolated
prediabetes
germ
neonatal
provided
deafness
radioactive
repeated
usual
inhibitors
cardiovascular
kinase
susceptibility
cold
machine
site
##8
babies
exposed
metastatic
ninds
stenosis
believe
mass
performed
therapies
density
detailed
reproductive
along
chemical
shape
storage
throat
membrane
mg
parkinson
forehead
electrical
malformation
unusual
device
here
remains
syndactyly
##ian
##nt
our
a1c
missing
program
risks
understanding
picture
her
plaque
points
prescribed
estrogen
physically
happens
variant
color
retina
sound
regulation
data
gets
report
stool
things
vegetables
gait
local
placed
skills
12
expression
ages
period
though
never
positive
required
sensorineural
broken
melanoma
supplements
die
dye
maintain
monitor
mother
secondary
earlier
genome
overall
full
compared
drinking
million
professionals
11
appearance
deep
series
glucagon
sensitive
accumulation
choice
premature
rich
shortage
travels
sperm
sporadic
unable
veins
hypertelorism
inner
magnetic
referred
##ization
habits
mainly
mean
stones
calories
irregular
rash
waves
##ers
contains
distinctive
aids
limit
ribs
someone
##mia
cartilage
injection
recent
sensory
smaller
##ted
tremor
centers
smell
allows
chromosomal
raise
bmi
incontinence
understand
behavior
chain
alone
antibody
issues
leg
swallowing
viral
stiffness
unusually
uterus
blindness
bodies
chd
eggs
enzymes
injuries
resonance
tone
computer
glaucoma
thick
worsen
##rs
his
meals
proper
##ent
18
eventually
gain
prevents
##ial
already
cerebellar
fetal
hip
living
respond
cystic
fiber
opening
##tic
accepting
##u
division
secretion
bodys
breakdown
illnesses
third
trigger
##ide
adolescence
ensure
sensitivity
cough
idiopathic
involving
catheter
mitochondria
old
atresia
five
reducing
shortness
##ts
allow
sequence
state
viruses
##te
cost
ldl
managing
painful
generalized
vaccine
vertebral
##ated
clotting
fluids
gas
refine
triglycerides
choose
member
permanent
retinopathy
supportive
americans
incidence
septal
tongue
aortic
approved
acidosis
across
carries
partial
read
abortion
malformations
thrive
brachydactyly
course
involuntary
newborns
strabismus
vascular
community
finding
patches
suggests
survive
toe
apnea
gi
younger
colitis
fibers
traits
##ular
requires
chemicals
headaches
paraplegia
polydactyly
remain
cycle
headache
specialist
easily
examination
my
next
##a1
impair
inability
perform
phosphate
plasma
received
simple
variations
click
direct
examples
goes
constipation
esophagus
lab
layer
memory
morphology
tiny
transport
##se
combined
jaw
syndromes
##oma
critical
hemochromatosis
literature
ovaries
specifically
takes
duct
fewer
toxic
ventricular
attention
fetus
nail
penis
significantly
taste
##id
blockage
de
quit
alzheimers
fruits
harmful
puberty
reasons
replacement
anus
apparent
corpus
protective
thrombocytopenia
benefit
walk
laboratories
metformin
pump
routine
cryptorchidism
pelvis
##il
##th
callosum
discomfort
hypothyroidism
intestines
phase
approach
bacterial
base
frontal
obstruction
sickle
clot
coordination
formed
intolerance
ptosis
dietitian
forming
temperature
african
blocked
blocks
endocrine
language
numbness
philtrum
component
connective
drinks
hydrocephalus
images
migraine
refers
rise
##v
anal
containing
count
doses
fight
mechanisms
ongoing
palsy
samples
70
controlling
emergency
pelvic
colorectal
hiv
surgeon
hyperplasia
medicare
office
peritoneal
video
17
advanced
aim
coa
nutrients
step
dizziness
dl
numbers
spasticity
##ar
ducts
mineral
places
avoiding
disrupt
programme
atypical
index
knowledge
produces
specialized
##ities
personal
probably
trauma
confusion
congenita
devices
examine
hla
inserted
put
collagen
staging
wear
alopecia
anesthesia
decisions
prescription
14
deposits
depressed
gallbladder
impact
natural
neoplasm
regularly
beginning
benefits
cns
controls
correct
anything
flu
lupus
reaction
75
functioning
initial
molecular
position
angina
environment
institutes
rheumatoid
##ch
airways
giving
influence
mobility
parathyroid
supports
today
youth
##sis
##st
cone
dependent
inherits
prolonged
reason
reduction
travel
##ating
cancerous
controlled
cutaneous
myeloid
severely
suspected
thalassemia
vitamins
##tive
according
specialists
spectrum
tubes
untreated
##nce
##rin
duplication
follows
heartbeat
immunodeficiency
encephalopathy
grade
hyperglycemia
lactose
liquid
sense
strong
##ized
##ter
hypoplastic
thumb
transplantation
channel
confirm
shock
burden
drop
fact
insurance
soon
urination
goals
phalanx
service
top
##ism
classic
methods
programs
progress
rna
turn
80
highly
infectious
links
platelet
progresses
school
newborn
rather
rotated
sores
consider
fractures
private
atherosclerosis
emotional
jaundice
macular
serum
works
basal
polycystic
specializes
##ce
##ge
agents
building
degree
divided
lens
saturated
sensation
tired
triggers
breaks
happen
stored
200
anterior
maintaining
training
charcot
laser
underdeveloped
world
##ling
##oid
agenesis
builds
counselling
dehydration
interfere
##uria
fish
isn
molecule
niddk
pediatric
released
scans
strength
13
computerized
experts
genitalia
line
nephropathy
outpatient
centimeters
extreme
ichthyosis
marie
matter
corticosteroids
eyebrow
genital
itself
variable
24
alleles
fully
hepatomegaly
proximal
waste
##it
##ns
edema
imperfecta
point
quitting
twice
##ant
##ma
##ra
did
posteriorly
spots
starts
understood
##ure
coloboma
coming
flat
fusion
inhibitor
##ol
##ps
arrhythmia
fragile
hour
scarring
voice
walls
macrocephaly
microphthalmia
symptomatic
basis
bind
cyst
species
##emia
effectively
encodes
greatly
meat
separate
signal
sinus
egg
intervention
lost
marriage
patterns
remaining
sparse
ulcers
channels
front
humans
man
cut
hnf4
hydroxylase
recurring
resistant
space
##age
celiac
discrimination
myoclonus
##b1
cornea
disrupts
entire
expressed
carbohydrates
clearly
expected
kinds
majority
mature
parasites
pathway
philippines
started
techniques
trisomy
##ds
aorta
breathe
dilated
findings
regarding
everyone
mucus
portion
status
upon
##ms
filter
keeping
negative
page
relatively
swollen
allele
maternal
removes
cellular
foreign
monoclonal
monogenic
lymphocytes
snps
##ll
##ration
bring
coding
contracture
detected
easy
rapidly
shingles
##de
attached
classified
dark
fatal
trained
valves
act
aspirin
endometrial
membranes
observed
focuses
guidelines
intrauterine
surrounding
vagina
##ally
alzheimer
biologic
carbohydrate
changed
six
unaffected
aneurysm
checking
clinodactyly
ions
rates
##re
account
animals
far
gradually
maturation
pet
run
technician
##ding
16
aging
chances
extremely
reactions
seems
camptodactyly
gives
indicate
losing
palmoplantar
pathways
spinocerebellar
##q
appetite
bullosa
disturbance
dysarthria
intravenous
lice
processes
5th
blue
ckd
continues
forward
painless
removing
subunit
attach
exercises
fine
flexible
girdle
lifetime
nephrotic
pectus
biological
ends
milder
neuroblastoma
outcomes
previous
##ions
characteristics
ethnic
heavy
lasts
ll
piece
tolerance
viewed
##one
aged
relative
unless
vaccines
animal
bilateral
cerebrospinal
epidermolysis
helpful
tubular
21
bad
reduces
rhythm
scalp
comprehensive
defined
friends
height
identification
lot
myopia
pdq
restore
sitting
splenomegaly
vasculitis
answer
reflux
safety
slightly
##ium
added
dysostosis
else
inguinal
length
targets
transmission
##ize
35
acidemia
additionally
cerebellum
cortisol
epicanthus
fallopian
infant
supply
tb
toward
urethral
date
guide
pigmentation
recently
survival
suspect
uncontrolled
view
hot
image
link
nurse
spasms
split
vertebrae
##ne
alter
coma
cranial
infertility
intermediate
note
tiredness
##ble
##les
##ve
##ving
activated
dividing
mostly
overgrowth
regulates
tingling
web
amyloidosis
gwas
iris
knee
network
source
ups
##as
##led
distinguished
hemorrhage
involvement
keratoderma
osteoarthritis
pathologist
psoriasis
records
supplies
diagnosing
fall
international
neuronal
palpebral
somatic
sweating
##ctomy
cjd
donor
grows
hormonal
needles
seem
shots
wasting
##omas
eyelids
gotten
microdeletion
overview
successful
temporary
article
contractures
diffuse
replace
talipes
true
variation
##opathy
anomalies
approaches
arterial
binds
grains
kyphosis
recurred
regional
##el
##ty
components
hypertonia
itching
lumps
telangiectasia
vre
##ary
contrast
couples
fingernails
gout
informed
lipid
lowering
malabsorption
minor
persistent
pills
poorly
product
rectal
segment
synostosis
tobacco
topic
actually
balanced
bossing
choices
established
figure
focal
harm
ketones
method
occurring
sister
themselves
communication
context
destroy
homologous
metacarpal
thinking
cutis
destruction
ekg
kind
leukoencephalopathy
limitation
mechanism
relax
structural
testicular
##ible
##man
##the
disabilities
events
hyperparathyroidism
lives
periodic
ulcerative
##ish
adolescents
boys
craniosynostosis
effectiveness
father
potentially
pyruvate
return
ring
squamous
suggested
thalassaemia
trans
##ld
accumulate
aciduria
administration
behind
biliary
dislocation
focus
interventions
retinoblastoma
toxins
##ler
##w
65
alternative
aml
computed
doing
encephalitis
hemodialysis
homeostasis
practice
##ta
absorb
carotid
despite
embryonic
heat
lipoprotein
narrowing
occasionally
please
relatives
salivary
uric
yourself
blockers
cataracts
decision
double
eyelashes
gums
hips
knees
mitral
nevus
rh
send
strategies
tends
useful
##line
##ning
23
albumin
bruising
calcification
determined
event
hemophilia
injections
malar
mothers
newly
porphyria
studying
atp
autonomic
confirmed
diets
lasting
meiosis
programmes
random
scientific
trunk
urinate
wastes
##ks
45
asian
colored
crohn
delivery
government
mtdna
myelin
receptors
remission
roof
sources
tips
transfusions
46
abuse
again
atria
beam
eliminate
flattening
microtubules
outer
retrieved
typical
cdc
counter
differences
gender
hemorrhagic
moving
option
physicians
polyps
repeat
sons
steroids
wilson
##ical
arteriosus
beans
going
lateral
predisposition
rule
shared
society
canal
consists
deterioration
grams
induced
plus
proteinuria
rod
shot
stores
sun
umbilical
aren
commercial
covering
generation
lactic
obtain
ones
pre
shoulder
ultimately
500
800
bilirubin
continuous
criteria
hypertrophic
mps
record
scar
##at
##ral
##ss
aggressive
basic
burning
carnitine
coarse
cramps
growths
paroxysmal
patent
pes
processed
relief
triggered
##ad
##iasis
##ro
decline
digest
discuss
hypotension
listing
menstrual
oropharyngeal
previously
von
##cy
##ging
##ping
airway
complication
consciousness
ductus
ectodermal
foundation
meaning
plans
radio
replication
selective
sides
spontaneous
stops
vaginal
weakened
##tes
aimed
carpal
exercising
loci
lump
raises
stopping
tyrosine
chorea
curvature
cushing
danlos
department
describes
dyskinesia
ehlers
groin
impairs
topics
vermilion
arrhythmias
believed
communities
coughing
elbow
gastric
hematuria
highest
hyperreflexia
lymphedema
marfan
protects
rice
showed
unhealthy
ankles
contaminated
immature
looking
maintenance
meet
minerals
ovary
waist
##ants
##ides
glucokinase
improved
mid
synthesis
testes
walker
watch
##ance
##ard
background
domain
dopamine
easier
excision
fashion
immediately
incomplete
intensive
menopause
mood
performs
seek
standing
##onic
antibiotic
autism
b12
decreases
detection
dont
promote
topical
utis
##ses
##son
acting
anticancer
ended
hyperactivity
interaction
lysosomes
medium
seizure
stimulation
##otic
adjust
antigen
beverages
brown
distinct
explain
girls
heal
improves
managed
smooth
subunits
uncommon
##ck
##ut
copd
costs
deformities
fa
feelings
physician
prone
retention
speak
transporter
ve
##bs
##ors
##os
attaches
clinic
craniofacial
damages
differ
hyperkeratosis
neurofibromatosis
notice
nucleus
parkinsonism
penetrance
post
prior
solution
##ence
##ib
##ries
allowing
faulty
fistula
lch
locus
microscopic
nares
pregnancies
rigidity
stiff
stools
sugars
ureter
##im
##ings
compression
cortical
discovered
enlargement
evaluation
gum
looks
nutritional
radial
transmitted
warfarin
##and
##la
95
advice
bifida
ethical
filled
hypermobility
lymphocytic
occupational
overactive
phosphorus
scd
##ectomy
##sh
conducted
divide
flexion
nails
recover
spina
trying
##ke
actions
asbestos
blurred
efforts
fathers
kaposi
lips
loose
neutropenia
regulatory
sends
thickened
##a2
##me
##ual
anteverted
calorie
carried
cat
cigarette
ewing
hypogonadism
pancreatitis
planning
trait
triglyceride
##idase
aneurysms
cover
csf
delays
dysphagia
eyelid
improving
policy
processing
reports
roles
strategy
tablets
##est
##ner
##z
150
barr
bed
bowing
cervical
destroyed
enamel
linkage
neoplasia
noonan
personality
strokes
termination
tip
version
wilms
##ee
##n1
anomaly
beyond
clean
except
hyperthyroidism
inserts
paget
passing
proliferation
relevant
scleroderma
seeds
##mic
##pt
##tal
33
aid
anyone
assessment
careful
checks
contractions
copper
endoscope
expectancy
facility
focused
insipidus
possibly
proportion
regulating
teens
ulcer
undergo
yellow
##der
##ist
##nd
atrial
chin
gallstones
huntington
myelodysplastic
ocular
original
refer
repeats
stimulate
uti
variability
worsens
##ite
##tis
absorption
catheters
childs
class
covered
incision
insomnia
limiting
strand
##ome
al
bases
complement
cultural
diabetics
doesnt
femoral
hemiplegia
inactive
pale
prevented
regression
resection
sarcoidosis
steroid
##iness
##izing
##ls
##ocytes
becoming
chains
composed
description
folds
interact
iodine
layers
materials
names
nature
offered
peptide
polyposis
stone
store
suddenly
##am
amputation
articles
blepharophimosis
epiphysis
exams
irritability
nucleotide
remember
tcf2
track
asymmetry
belly
cope
dangerous
drops
hold
inches
narcolepsy
nonsyndromic
selection
tool
transient
##cing
allergic
axial
blisters
carefully
concerns
differentiation
embryo
hypertrichosis
improvement
legal
lymphatic
albinism
als
chambers
consent
decide
defective
discussed
eeg
great
instrument
oncologist
sites
technology
##ative
##ct
##less
##sion
alagille
amyotrophy
arranged
aspiration
concentration
dentist
included
localized
mortality
nearly
noncancerous
novo
polycythemia
rib
runs
sounds
us
##na
##tosis
##ude
##up
accompanied
africa
cup
dwarfism
fissure
ie
incoordination
intelligence
lethal
myoclonic
official
prostatic
redness
sweat
transfusion
translocation
##rate
angiotensin
associations
conductive
fibrous
intrahepatic
lowers
myeloproliferative
phalanges
round
situ
vancomycin
##bone
##ded
##ful
##ker
##ulation
##va
candidate
carcinoid
creatine
crucial
cuts
deviation
eruption
fruit
healing
immediate
lie
markers
noticeable
phosphorylation
pieces
prednisone
ratio
relationship
spaced
subtypes
toenails
##lic
##ulin
lethargy
leukodystrophy
mecp2
myeloma
myotonia
phenotypic
via
widespread
##can
##ose
adequate
aware
bloating
cf
cholestasis
closely
co
distress
excavatum
extent
fanconi
hd
leak
passes
phenomenon
purpura
raised
reading
subcutaneous
university
##cd
##ea
##om
##ze
##zing
26
55
aerobic
combinations
dairy
descent
determining
fracture
gastritis
harder
infusion
institutions
invasive
larynx
maturity
pleural
proposed
something
stopped
thoracic
turned
units
urea
warning
##et
##etic
22
clusters
coagulation
creatinine
hypospadias
interferes
meter
multifactorial
organization
posterior
restricted
rickets
screen
stimulates
touch
unlike
words
wrist
antigens
aplastic
axonal
black
bronchitis
consanguineous
consumption
core
echo
elbows
faster
gluten
inflamed
kyphoscoliosis
palpitations
preventive
ranges
sinuses
stigmatization
tcf1
trachea
wearing
##ba
##ca
##ric
allergies
conduction
fail
germs
glycemic
india
neural
occurred
online
pay
polymorphisms
stable
transmit
##are
##ier
##ins
19
artificial
carbon
cilia
contract
contributes
ganglia
immunotherapy
lipase
operation
pigmentosa
pterygium
recognize
reflexes
stays
tunnel
views
visits
voluntary
##ay
##ory
anywhere
circulation
describe
field
hemiparesis
intense
ketoacidosis
model
osteogenesis
psychiatric
rls
schedule
shrink
situation
stick
##emic
##oscope
##ring
add
cfs
deaths
fainting
genetically
laryngeal
law
meningitis
mmol
morning
mosaic
neurologic
parasite
room
uremic
vrsa
waiting
warm
wounds
##ably
##cc
##ior
clinics
exactly
keeps
killing
lactate
microvascular
naturally
offspring
protection
shoulders
sleeping
talking
tay
##king
accurate
acth
activation
chondrodysplasia
clothing
ectopic
equipment
et
exchange
fallot
inclusion
kit
lymphoblastic
malnutrition
meant
mouse
psychological
radius
responsive
##ology
##ria
##yl
alcoholic
chiari
chromatids
connects
giant
green
intensity
me
nursing
offers
replaced
share
sore
synthetase
tremors
##ering
##ight
##tor
##ur
acts
ah
aicardi
car
cervix
fold
gamma
genu
hyperpigmentation
lipodystrophy
neoplasms
ossification
press
providing
speaking
success
##c1
##stic
##ulated
af
america
applied
button
cant
conducts
dash
diaphragm
diaphragmatic
esophageal
glycaemic
graves
helping
histiocytosis
hypertrophy
ischemic
lines
nodules
onto
prevalent
rupture
tears
tetralogy
thirst
wash
acuity
angles
blistering
box
circulating
destroys
hpv
identifying
mandibular
metaphyseal
mixed
ophthalmoplegia
orthostatic
releases
responses
rhabdomyosarcoma
##ped
##ue
arthralgia
corticosteroid
deficit
difference
epithelial
exist
fear
flows
gradual
inversus
moves
nuts
organizations
palm
pneumothorax
portal
score
suffer
tasks
thrombosis
venous
ventricles
##ening
##inal
##ise
creates
discovery
empty
fertility
fetuses
fused
iga
islet
juice
lpl
modification
month
mucopolysaccharidosis
observation
ounces
predict
quantity
recommendations
resource
retinitis
urologist
uterine
whereas
whom
writing
asleep
assistance
changing
deletions
enlarge
erectile
falls
fit
force
hairline
hallucinations
importance
inactivity
narrowed
pigment
sacs
simplex
susceptible
swallowed
##d1
##ow
##rt
accounts
achieve
charged
cheeks
china
endoscopy
fda
immunoglobulin
impulses
motion
osteopetrosis
postaxial
recognized
recur
rights
sensations
shortened
slows
span
transition
##13
120
actin
arise
capn10
digestion
equinovarus
glycosylation
hemiplegic
implemented
methylmalonic
mildly
partially
photophobia
polymicrogyria
practices
purpose
recommends
requiring
respectively
ridge
sunlight
ulnar
validity
weaken
##eal
##li
##ub
adverse
aims
amyloid
beat
ciliary
concern
corners
digital
duration
finally
fructose
globin
hollow
itchy
lipids
malta
necrosis
overload
particles
plane
proven
sachs
surrounds
therapeutic
transverse
vocal
##ened
##ified
##inase
aat
ace
allergy
avoided
blocking
choosing
disruption
dissection
distribution
frozen
ill
kcnj11
migration
planus
shortly
solid
thigh
thymus
##red
##tions
##to
alveolar
corner
ctla4
cyclin
disappear
epiphyseal
episode
fecal
media
medullary
midface
noted
oils
overlapping
pseudo
reference
saliva
thinning
thorax
turner
uv
##cular
##gia
##late
##nts
##ocele
##olysis
##worm
amd
awareness
camera
collect
educational
encouraged
eosinophilic
fungoides
gap
hgh
millimeters
mucolipidosis
mycosis
named
nipple
pair
regulated
ureters
whites
yes
youre
converted
decades
etc
experienced
glomerular
hospitals
initially
myelogenous
organisms
pairs
ph
pkd
pounds
said
sent
sizes
sjgren
sporadically
sulfonylureas
surveillance
visa
willebrand
##ious
##ir
##lia
47
48
acromegaly
auditory
bottom
bumps
consult
cramping
echoes
gh
glut2
immunosuppressive
indicates
invaders
leber
lessen
mucosa
nonfunctional
nsaids
palmar
profound
safely
testicles
testosterone
vera
vulvar
wolfram
##its
##ned
##og
##onate
2008
adipose
caffeine
cavus
cyclic
deformity
folic
funded
igm
irritation
largely
lymphadenopathy
opitz
pill
quick
relation
tachycardia
tall
tools
ventriculomegaly
visible
##ged
##rine
##tory
##use
140
ancestry
big
chloride
counselor
cured
cytochrome
fundamental
glomerulopathy
myasthenia
oil
pacific
planned
platyspondyly
prepare
replacing
secondhand
sensor
skeleton
stimulating
thickening
thrombocythemia
vertigo
wrong
##f2
##fs
##inuria
##md
##op
arachnodactyly
aspects
beating
congestive
consistent
coordinating
couple
disturbances
europe
existing
fibrillation
gastroenterologist
hairy
hyperostosis
hyperthermia
implementation
independent
interactions
maps
osteosarcoma
sclerosing
sideroblastic
spot
surgically
varicose
wound
##ction
##ges
##ti
bifid
biology
capillary
conduct
consequences
contraction
crease
hyperlordosis
intraocular
kawasaki
leigh
plastic
polyhydramnios
sac
south
##bi
##des
##gs
##oscopy
##sa
##vascular
clouding
connected
deficient
dermatitis
directed
driving
endothelial
evaluate
floor
grants
identical
interstitial
mention
modifications
pick
principles
registered
reverse
seeing
sequences
sports
stroma
suggesting
tendency
thiamine
ventricle
##ile
##ix
##ot
300
anaplastic
apraxia
balloon
bypass
chewing
correctly
decreasing
eight
emg
fresh
global
hnf
interest
ipf1
klippel
lactase
led
likelihood
neurod1
obstructive
palms
recurrence
reductase
say
setting
settings
soles
staff
written
##ches
##ties
##tric
ankle
border
cluster
compounds
dandy
drawn
episodic
extensive
helix
macula
magnet
micromelia
occurrence
prompt
proptosis
radiologist
sealed
sequencing
shoes
shorter
t2
tarsal
unique
unlikely
workers
write
##amine
##ans
##ates
##em
##ered
##int
##ky
##ulate
##ute
911
anencephaly
apoptosis
arched
causal
collects
complementary
convert
coverage
deleted
economic
filipinos
glomeruli
gm1
herpes
hole
hyper
measured
measurement
pe
pheochromocytoma
qt
reaching
stent
thrombophilia
traditional
triangular
unexplained
vi
watchful
##ched
##ids
##m2
##mal
##ological
##virus
asymptomatic
capacity
chickenpox
code
cowden
damaging
distinguish
dust
elderly
evident
fifth
filaments
gck
hnf1
ibs
let
lifelong
listen
outcome
performing
question
repetitive
sulfonylurea
##ars
##atic
##ations
##ig
##ip
##ogenic
##ologic
##ore
##t1
aldosterone
assess
beats
breaking
brighter
ceroid
cross
degrees
derived
designed
detachment
embolism
gastroesophageal
hepatosplenomegaly
hope
lobes
none
overlap
pcd
pernicious
portions
pruritus
screened
scrotum
sharp
strongly
surfactant
ui
##ain
##ons
##oses
##s1
ammonia
bronchiectasis
cigarettes
covers
detects
disaster
epidermis
experiencing
governments
hemangioma
inactivation
indian
indicated
inhaled
interferon
isoform
lissencephaly
ms
myalgia
obvious
persist
prognathia
prolapse
restrict
sca
sphincter
successfully
synthase
ten
unit
urgency
wires
##dactyly
##els
##ition
##land
##lated
##llar
##ocytic
##ys
aps
assist
brazil
breasts
brittle
cag
calpain
coats
epiphyses
fair
gangliosidosis
holoprosencephaly
hydrops
langerhans
macrotia
mds
metaphyses
native
omphalocele
plate
predictive
referral
religious
rising
scabies
scanner
smokers
snacks
ttp
ulna
unstable
usher
##ave
##ie
##mp
##ock
##onyl
##r1
##zed
achondroplasia
agent
aromatase
burns
charge
clumps
contributing
dmd
drain
finds
frontotemporal
gtr
guidance
handle
hunger
illegal
lipoproteins
matrix
mmhg
nurses
opacification
oxidase
protruding
regimen
restless
sections
sit
sponge
standards
survey
upslanted
uptake
##fe
##form
##tia
2014
abcc8
abortions
ad
circumstances
colonoscopy
confidentiality
deficiencies
diagnoses
displacement
dpp
duane
encoded
fullness
genomics
kingdom
men1
models
mosaicism
mucous
myotonic
neurodegeneration
objects
obtained
purposes
rid
spaces
spontaneously
undescended
unfortunately
##dm
##hs
##ination
##ography
##ture
##ulatory
barriers
bartter
carinatum
chills
dermatomyositis
duodenum
exons
generations
glioma
heterogeneous
lots
malformed
micropenis
mole
nmri
nonsteroidal
panic
paranasal
pioglitazone
privacy
proctitis
punctata
rat
raw
similarly
specially
traveling
unsafe
##ify
##pathy
##time
##tle
31
absorbed
astrocytoma
atoms
challenges
chart
compound
content
determines
dvt
enterococci
epidermal
establish
financial
foodborne
fourth
gray
hispanic
homocystinuria
increasingly
insensitivity
lesion
plant
polygenic
preference
sugary
telecanthus
unilateral
windpipe
##ily
##ka
##ki
##ogenesis
##rated
acanthosis
complexes
connexin
embryonal
equal
facilities
genotype
guillain
iiib
inheriting
inward
items
leiden
lenses
lipofuscinosis
machines
marriages
multiplex
nigricans
ornithine
placement
precise
preeclampsia
reactive
requirements
situs
subjects
subtype
suppress
tcf7l2
thyroiditis
worsening
##active
##atch
##be
##ctive
##ern
##ud
anaphase
arteriovenous
bacterium
bag
breakage
consuming
coordinated
crisis
demonstrated
ed
ependymoma
falling
folate
gastroparesis
hirschsprung
lean
mody3
monitored
mt
nonmelanoma
osteopenia
power
prion
promoter
promotes
puts
restrictive
reveal
sedentary
snack
stretch
t1dm
tear
tendons
varying
##cytosis
##geal
##ification
##ioma
##nse
##sal
##sing
##truction
##ural
##x2
29
a1
adjuvant
antitrypsin
asia
beneficial
breastbone
classical
dioxide
distant
drainage
error
gingival
glycine
hyporeflexia
hysterectomy
ia
islets
job
limits
meats
med
microdontia
micrognathia
participate
polymerase
prematurely
receives
rheumatic
stromal
towards
trophoblastic
vital
##atin
##azole
##enia
##hi
##ii
##kes
##such
amniotic
areflexia
ascites
bathroom
bite
blast
cbc
crystals
deeply
deliver
diuretics
epstein
escape
extracranial
febrile
heterotopia
jewish
lattice
mentioned
nucleotides
pityriasis
poultry
pumps
rashes
receiving
republic
shortening
specialize
spreading
stronger
tensing
thousands
triple
undiagnosed
vigorous
##cs
##istic
##ments
##ologist
##side
##ule
##ward
22q11
acne
addison
autonomy
blurry
centres
constant
consultation
dermal
dysgenesis
eyebrows
fetalis
globulin
klinefelter
landscape
leave
northern
numerous
organism
otitis
oxidative
partner
peas
periventricular
placenta
soil
somewhat
washing
##ame
##ger
##gic
##ibility
##moid
##nds
##of
##opia
##per
##roma
##ula
angiography
apart
arrest
astrocytomas
availability
bbb
brainstem
catheterization
cdg
column
comfortable
epidemiology
hear
iiia
laxa
liquids
mask
midline
nasopharyngeal
pericarditis
physiology
pointed
postnatal
preaxial
rta
serving
subsequent
sweets
tuberculosis
underdevelopment
velocity
webbed
wet
##fer
##ga
##mo
##nal
##pa
##sm
##therapy
1a
abilities
accumulates
acyl
addressed
bound
cage
consistently
created
crohns
dogs
drive
extracellular
flattened
genomic
hirsutism
inject
interested
introduction
mediterranean
metastasis
ordered
principle
published
rises
scale
sessions
silver
sleepiness
smoked
spindle
suppressor
synthetic
wiedemann
zealand
##ath
##berg
##k2
##lies
##like
##my
##oblastoma
##odystrophy
##py
##romas
##uit
ablation
accounting
barrier
choanal
completed
converts
definitive
dense
diamond
died
electrocardiogram
encode
enters
filipino
gorlin
hallux
heritability
histories
investigation
justice
limitations
mechanical
melanocytes
menstruation
millions
mpf
myelofibrosis
paternal
preauricular
project
provision
rearrangement
ridges
sector
silent
teach
tourette
urge
##ability
##ator
##dh
##duction
##genic
##lation
##olic
##pic
##used
achondrogenesis
amaurosis
angioplasty
arises
autoimmunity
behaviors
bluish
choroid
continued
culture
daughter
definition
encourage
extragonadal
flexibility
glutaric
gravis
harming
hlh
hypercalcemia
ice
itp
knows
meatus
milligrams
minimize
mrna
murmurs
mutant
nephritis
osteochondromas
pigmented
pubic
ras
reaches
refractory
relaxation
rett
sentinel
serve
situations
sweet
technique
temporarily
tendon
transports
valgum
value
##date
##dy
##hia
##ics
##idation
##ists
##loid
##phase
##rates
##ried
##td
ashkenazi
brisk
category
conducting
coxa
designated
dissecans
effort
emptying
encoding
equally
exists
extended
false
femur
final
fungi
genetests
heartbeats
heparin
heterozygous
indigestion
largest
occipital
osteochondritis
presents
priority
pupil
reproduction
rieger
seeking
separation
showing
stairs
surfaces
tag
transducer
transplants
vhl
##10
##22
##af
##ap
##cted
##ional
##ml
##oin
##tors
adolescent
advised
amelogenesis
amyotrophic
anesthetic
au
bread
challenge
checkpoint
connect
counts
ease
echocardiography
erythematosus
ever
exhibit
film
hypercholesterolemia
hypopigmentation
imbalance
infested
instances
intermittent
joubert
lumbar
megacolon
miller
mody2
nevi
nf1
peritoneum
polypeptide
postmenopausal
postural
prescribes
prothrombin
pub
radical
rhabdoid
sedation
septum
syndromic
utility
values
waardenburg
wait
wheezing
##cosis
##ep
##f1
##h2
##ini
##lement
##low
##n2
##nia
##ny
##ood
##uring
85
basement
brca2
classes
coffin
cohort
diverticular
emission
endocarditis
exaggerated
expressivity
extend
eyeball
feces
hepatocellular
household
hundreds
hypotrichosis
kb
keyboard
knowing
lyase
microtia
nash
otherwise
polymorphism
positively
pus
seconds
straight
timing
tuberous
ultraviolet
underlie
vulnerable
wheelchair
##aking
##cin
##hip
##ility
##inemia
##od
##pers
##une
adenomas
adenomatous
advise
assisted
babinski
brought
carious
childbirth
confidence
delivered
disseminated
dolichocephaly
g1
inappropriate
individualized
ins
instability
lying
manifestations
multifocal
musculoskeletal
neuralgia
nocturnal
north
oophorectomy
pinna
query
ranging
spondyloepiphyseal
statins
stereotactic
viewing
##11
##anger
##bar
##idine
##io
##lc
##m1
##min
##ocytosis
##ron
application
autoantibodies
band
births
brackets
challenging
cleaning
cream
disproportionate
eczema
endocrinologist
esc
flowing
goutieres
hypoglycaemia
interval
ion
keratin
moyamoya
murmur
newer
phone
pineal
ppar
preferences
scaly
snp
spondylocostal
sustained
thalassemias
urinating
urticaria
van
wake
williams
winter
##b2
##ci
##fied
##gulation
##idal
##ied
##lates
##ncy
##opathies
##orn
##osed
##rd
adding
aphasia
choreoathetosis
chorioretinal
connecting
decade
emergencies
erection
fevers
filtering
friedreich
greatest
gsd
hearts
intracellular
irritable
lange
loud
myosin
nephrogenic
novel
opposite
phosphatase
positron
potatoes
rds
resulted
save
seven
sinusitis
sis
slowed
spasm
strain
syringe
thumbs
tibia
vesicoureteral
womb
##dd
##esis
##g1
##mann
##med
##otherapy
##ras
##xis
aches
activates
apc
baraitser
bites
bleed
capillaries
chamber
chromatin
concentrations
direction
duchenne
earliest
examines
expensive
feels
fill
hashimoto
hemophagocytic
hence
hhs
ibd
igg
initiation
lets
lists
metatarsal
mice
mirror
nitrogen
osteolysis
parkinsons
permanently
plenty
slender
subcortical
symphalangism
tick
tight
ventilator
vur
xiii
##aly
##cies
##hy
##icular
##ils
##ire
##ivation
##ocyte
##ontia
##toid
##utes
##ves
adopting
annual
anophthalmia
apply
arginine
cereals
chicken
cockayne
coli
compensate
cytoskeleton
differently
epidemic
estimates
everyday
fairly
felt
furthermore
hyperhidrosis
investigations
kinetochore
library
malrotation
microsomia
mistakenly
mitosis
myelomonocytic
oculocutaneous
outward
pcos
penile
personnel
phases
placing
pyridoxine
releasing
respect
responds
select
siblings
sle
son
tamoxifen
tenderness
testicle
tracheoesophageal
##any
##art
##crete
##itation
##lial
##opathic
##rative
##ris
##rium
##rocytes
##sia
##uate
##ulitis
##ump
abc
androgen
arthrogryposis
bradykinesia
bulging
canned
card
chorionic
closed
connection
cooking
cortex
creating
erythroderma
ethnicity
everything
exclusively
extremities
fails
framework
gad
geographic
hemangiomas
hygiene
iva
lacking
laxity
merkel
moles
oxalate
plaques
plasminogen
possibility
represents
separates
stationary
sweats
systolic
turning
upward
volume
weber
weill
yellowing
##axis
##bral
##cent
##ill
##iology
##mt
##ork
##ostomy
##rating
##ress
##round
##ster
##sy
##uck
##utive
##zumab
130
400
adhesions
advance
alters
bariatric
belongs
brother
cardiologist
cascade
clothes
cloudy
cords
craniometaphyseal
crawling
creams
egfr
enjoy
feil
fills
gadolinium
gastroenteritis
hemifacial
ib
leaving
leukocyte
ligand
lysosomal
mastocytosis
mitotic
modest
osseous
pallor
patellar
pleura
port
profile
proinsulin
pulmonic
pv
refined
scars
stability
stethoscope
stickler
strands
tinnitus
toxin
varied
##activity
##ages
##agliflozin
##ases
##cephaly
##cts
##ense
##eptic
##ermann
##gate
##idomide
##l1
##mbling
##oa
##oring
##oved
##ox
##pg
##ph
##rip
##rp
##well
##where
180
27
64
aa
acanthocytosis
agonists
allelic
angelman
brachycephaly
butter
carrying
cgm
closure
compare
daytime
demand
dietitians
discharge
east
eastern
ectopia
eosinophils
exon
fgfr3
fragments
fungal
gaucher
hydronephrosis
iiic
implicated
intracranial
levodopa
lifespan
marker
mater
metaphase
narrows
neuromuscular
paresthesia
pda
plants
playing
poles
polymyositis
precocious
premarital
pure
pylori
randomly
ready
robinow
segmentation
strengthen
stressed
stretching
strict
transcript
traumatic
vacterl
##ats
##ctal
##hd
##ital
##ng
##osarcoma
##osome
##res
##rophic
##rosis
##sts
##ton
##zide
achieved
activate
albright
allowed
androgens
anonychia
anosmia
antidepressants
antiphospholipid
antiviral
botulism
bright
burn
cheese
chemistry
collection
cytoplasm
depletion
details
dic
distance
dystrophic
ensuring
epithelioid
ferritin
generate
harmless
hemorrhoids
hypophosphatemic
influences
lait
leaves
letter
lobe
lymphohistiocytosis
lynch
megaloblastic
nor
nostrils
odor
participants
pd
phosphokinase
plexus
pontocerebellar
readings
resolve
shallow
sibling
sub
supplement
swallow
toilet
translocase
treatable
treats
turns
tv
urgent
versions
vitelliform
wheat
##ancing
##dontia
##eria
##iosis
##mer
##oids
##omal
##ored
##osa
##oside
##ri
##sin
##un
2010
abundant
activating
adenoma
advances
alae
aniridia
ards
blasts
blind
brief
cholangitis
chondrocalcinosis
considering
cyanosis
epileptic
filamin
firm
fissures
gangrene
heartburn
hypocalcemia
injured
ipf
isolation
medicaid
melanocytic
nephrocalcinosis
ogtt
phenylalanine
phosphoglycerate
policies
prader
predominantly
psa
quarts
rotates
sized
speed
steady
terminal
thinners
thymoma
took
trinucleotide
visceral
vitiligo
vitreous
willi
won
yeast
##ach
##ae
##aging
##akes
##da
##ectin
##ens
##ft
##ians
##ivity
##ject
##kers
##mine
##oad
##opausal
##r2
##rb
##related
##rotic
##ulator
##vision
1b
achalasia
alport
axenfeld
axons
brachial
braf
brca1
climbing
codon
crossing
cyclosporine
dei
diameter
dimensional
discussion
dosage
electronic
envelope
esrd
hsp
hypokalemic
hypomyelination
interpreted
leptin
mastectomy
md
moreover
myasthenic
myositis
nations
news
niemann
ophthalmologist
paraganglioma
pigmentary
poisoning
pparg
pprs
practitioners
probe
prolactin
radiosensitizers
ratios
replaces
segmental
summaries
surgeons
tibial
urinalysis
vii
watery
weakens
##17
##24
##ane
##back
##cks
##eat
##ents
##eration
##graphy
##h1
##iate
##ined
##kin
##mide
##ort
##ouse
##ritis
##rsal
##void
##zen
antihistamines
assembly
attributable
bardet
barium
biedl
biopsies
cereal
compartments
conception
consanguinity
continuing
converting
desmoid
digits
donated
dysautonomia
efficiently
fontanelles
gardner
gone
hb
heme
hospitalization
hypophosphatasia
ideal
iia
insufficient
intended
leaking
li
lichen
minute
multi
offering
parietal
peak
pen
preparation
react
running
rural
septo
staph
starchy
tailored
thrombocytopenic
tonic
uncomfortable
widening
xx
zellweger
##12
##77
##88
##bin
##cated
##cil
##cious
##ff
##gram
##hall
##iaphyseal
##ick
##imer
##isjunction
##jo
##lla
##lli
##mas
##mit
##omelia
##orate
##otics
##pes
##phalic
##pl
##posing
##uccinate
##uch
##ules
##vate
##way
actual
aganglionic
analyses
blockages
bonds
bulge
categories
citrullinemia
classification
compulsive
conjunctivitis
coworkers
craniopharyngioma
creutzfeldt
differs
epidemiological
examining
germline
histone
hopkins
hypoglycemic
hypopharyngeal
ibuprofen
iib
implications
insert
introduced
jakob
kallmann
kept
labels
lcat
linear
lipomas
locate
malaria
measurements
merzbacher
methyltransferase
microcornea
musculature
neuron
neuropathies
organic
pelizaeus
personalized
precursor
predispose
prepared
probability
pulse
pumping
racial
recording
relating
remodeling
surgeries
tapered
threshold
tonsils
transitional
transmits
trigeminal
vwd
wild
wolff
##25
##au
##ert
##lized
##odysplasia
##our
##put
##row
##uous
##ved
2a
agency
assurance
asymmetric
beneath
bloody
boost
bruises
buttocks
caregivers
cavities
cdk
cea
centre
closer
communicate
companies
consume
deal
defenses
diseased
eds
errors
fabry
fee
follicles
gel
gerd
glucocorticoids
gov
hardening
helped
her2
homeobox
hp
htlv
hydatidiform
inhibiting
inhibits
johnson
keratosis
latin
leakage
lentis
literacy
magnesium
measuring
multicellular
multicentric
multicystic
nephronophthisis
nipples
overcome
pachyonychia
pericardium
promoting
proton
recombination
represent
resemble
returns
rodents
salpingo
sepsis
slurred
sprengel
supporting
symbol
tcells
technologies
thrombotic
thymic
transaminases
twitching
worker
worry
zygomatic
##a3
##alangeal
##amide
##angeal
##blastoma
##esia
##ever
##ght
##iated
##imation
##iver
##mitted
##olate
##omy
##ran
##sd
##uation
##ug
##xy
administered
alterations
aminoaciduria
attachment
avms
cavernous
coloring
complicated
container
corn
cutting
deciliter
dentinogenesis
detecting
directive
eaten
educator
elastic
evaluating
expand
extension
fighting
gained
glucocorticoid
granulomatous
handling
hypoventilation
iliac
inhibit
insr
issue
jerking
latent
lowest
lymphomas
messages
mistaken
morbidity
mr
nemaline
nutritious
orange
overproduction
phenylketonuria
polar
polyneuropathy
preventable
progeroid
pyramidal
quite
reached
renin
resting
semen
slowing
sonogram
statistics
staying
students
thighs
thirds
tried
vial
whilst
whipple
xeroderma
##20
##aa
##ak
##anine
##ara
##arily
##ast
##cans
##cm
##duce
##eral
##fr
##hic
##ifies
##iss
##lizing
##logy
##melia
##namic
##nel
##nist
##olution
##oneal
##onitis
##philia
##sclerosis
##sible
##sp
##und
##uric
##vated
##ysplastic
250
acarbose
alkaline
amenorrhea
buy
cadasil
camurati
carboxylase
cardiogenic
checkups
clinically
clumsiness
conserved
constantly
convulsions
creases
demands
downturned
droopy
enables
erythropoietic
expansion
express
formal
gathered
glomerulonephritis
goiter
hernias
hippel
holds
homozygous
hypodontia
indians
leiomyomatosis
lies
ligaments
lindau
marchesani
mexican
migraines
monitors
mowat
multidisciplinary
net
noise
obsessive
osteomyelitis
pacemaker
pakistan
peters
pigmentosum
preparing
progressing
progressively
protecting
pulses
radiologista
repaired
rescue
rounded
row
scid
screenings
sexually
sheath
sutures
tender
transfer
twenties
##36
##alidomide
##ber
##cle
##cytic
##ew
##ifiable
##ina
##irt
##js
##may
##ogens
##phrine
##pi
##position
##pr
##rhea
##sed
##tation
##topenia
##zes
2000
appointments
besides
blepharospasm
clinicians
cml
constriction
cousin
domains
doxycycline
dried
ehrlichiosis
emphysema
federal
fuel
genitourinary
glp
hyperoxaluria
hypopigmented
impotence
instance
intrathecal
isoforms
katp
legislation
lymphoproliferative
malocclusion
metazoans
multiply
mvd
necessarily
neurologist
neutrophils
nosebleeds
occulta
organized
outbreaks
pachygyria
pallister
patch
peanut
pili
pocket
psychosis
pull
purple
regain
relapse
restriction
sending
slides
smith
soluble
substantial
synonymous
thereby
tightly
traps
valgus
weakening
woolly
##1a
##ail
##bility
##ces
##cytoma
##fy
##ister
##losis
##mb
##ming
##mission
##ogue
##ok
##openia
##out
##q11
##rosarcoma
##ust
##x1
##xia
51
actinic
aggregate
ambiguous
anaplasmosis
arising
asperger
awake
biotin
botulinum
brings
coffee
cryptogenic
daughters
delaying
dimple
downward
drawing
dyserythropoietic
epigenetic
epo
excretion
fertilization
filters
fumes
g6pd
galactose
holes
hydrogen
implanted
income
inserting
ivb
japanese
ketone
lafora
laws
marked
maxillary
methotrexate
milestones
minimum
mix
moist
natal
nomenclature
objective
orofaciodigital
otopalatodigital
packaged
paper
photodynamic
preferred
reddish
relapsing
says
shunt
simply
spondylitis
sunscreen
supplementation
supranuclear
szary
transplanted
travelers
unbalanced
vestibular
yellowish
zoster
##16
##23
##ards
##ariasis
##blasts
##born
##cio
##d2
##ery
##ets
##ex
##galy
##gation
##health
##imize
##j
##l2
##lastic
##lugs
##nail
##omelic
##omia
##oplastic
##physeal
##pine
##po
##rant
##rata
##rich
##rum
##sc
##tz
adhd
adrenoleukodystrophy
arsenic
aspect
astigmatism
avoidance
azathioprine
bigger
biochemical
brush
cap
certified
consist
conventional
danon
determinants
engelmann
entry
federation
floating
fuchs
gilbert
glasses
hungry
hypokalemia
ic
il
inadequate
independently
infect
integrated
kills
lymphoid
malfunction
maxilla
miscarriage
misshapen
modifiable
mosquito
nearsightedness
oculomotor
photosensitivity
porencephaly
powerful
precautions
preparations
pupils
regulations
rigid
sad
sclerae
scope
shun
sloping
staphylococcus
stream
swimming
synophrys
syringes
therapist
thorough
tia
ticks
tics
tough
trichoepithelioma
troyer
tubule
twins
tyrosinemia
underdiagnosed
urogenital
virtually
##aged
##ale
##d4
##fa
##gen
##ierre
##inic
##ino
##lization
##lusive
##lytic
##osomes
##pression
##rance
##rol
##tine
##uff
##ution
##ximab
28
accessible
accidents
adenosine
amniocentesis
atelosteogenesis
atrophic
aureus
branch
breastfeeding
clubbing
collectively
comparison
counting
cultures
cyclophosphamide
dbs
documented
e23
effector
enable
endoscopic
erythromelalgia
facies
genitals
genotyping
hepatocyte
heritable
immunizations
insect
investigators
islamic
la
latter
lichenoides
maltese
megalencephaly
modern
modified
modify
neuroendocrine
occult
ohs
parasitic
partners
patella
perception
peyronies
push
questionnaire
radon
residues
rmsf
slower
soap
specimens
stand
stands
strep
subset
subtle
switch
swyer
targeting
tells
thinks
transporters
tsh
tubules
twisting
undertaken
unsteady
viii
wine
##ab
##aving
##bing
##blast
##cation
##formis
##ifying
##ign
##ished
##k1
##lanting
##ley
##metry
##ocytoma
##oic
##olitis
##olytic
##otene
##otomy
##rn
##ulus
##unch
##uts
accept
accident
acd
ankylosing
bean
book
circumference
consortium
conversion
cpt
diplegia
directions
dopa
dumping
effusion
electroretinogram
examinations
extraocular
fly
friend
fungus
geneticists
heterotaxy
holt
hyperaldosteronism
japan
kinases
label
lesch
looked
measles
metachromatic
methylation
mnire
moebius
mol
neither
nyhan
opportunities
optimal
oram
organizing
pol
porphyrias
pots
readily
refsum
sacral
shaking
sotos
spondylometaphyseal
stabilize
syncope
tarda
thirsty
thymine
tolerate
transported
weights
wrists
xxyy
##atching
##atoma
##c2
##cretin
##edness
##fh
##functional
##gammaglobulinemia
##gd
##ient
##inating
##ited
##iva
##lium
##lk
##nical
##nists
##omalacia
##oot
##p2
##plasia
##ream
##some
##sumed
##table
##tron
##ulopathy
##ult
##vor
adenine
adjusted
adopt
affordable
axillary
breakfast
cah
cftr
clavicle
clonic
contraceptives
coordinate
corrected
cryosurgery
cytogenetic
decarboxylase
degenerative
demonstrate
detail
diary
dietz
dipstick
disabling
discoloration
dying
enhance
erosions
excreted
expect
g2
gaining
gaze
grouped
guanine
hospitalized
hrt
hurt
hypohidrosis
ige
impairing
initiated
injectable
laryngomalacia
lifting
loeys
medscape
misdiagnosed
mission
nephrectomy
nephrolithiasis
nhlbi
pdgfra
pediatrician
pemphigus
proteus
regurgitation
reinfused
replicated
retain
salts
sarcomeres
sheet
spherocytosis
stargardt
sunken
teratoid
thawed
thickness
tropical
worms
##14
##bacter
##bo
##bular
##butyryl
##chus
##flower
##ginal
##gment
##igned
##inib
##ising
##lare
##llent
##lls
##mos
##ncing
##nis
##ocardium
##oles
##omes
##ooping
##ops
##ott
##p11
##rils
##roliferative
##trognathia
##umab
##unced
##vors
1q21
2015
34
accelerated
ahead
alias
anytime
arachnoid
atopic
autonomous
bisphosphonates
bpd
broccoli
carcinomas
cda
centronuclear
chat
clavicles
concerned
counsellors
cystocele
draw
duodenal
endogamous
erythema
exertion
fitting
focusing
fraumeni
gametes
grain
hexokinase
hispanics
holding
homes
horizontal
hypohidrotic
hypothalamus
ischemia
ix
joined
juices
klebsiella
lennox
neurotransmitters
numb
oi
olive
origin
peptic
performance
perineal
pku
pollution
pool
pseudohypoaldosteronism
race
relieving
senses
sheldon
sialidosis
sickness
stoma
suffering
sympathetic
syrup
tar
thicker
twin
waddling
weather
womans
##0s
##2b
##70
##80
##ax
##bia
##bling
##dal
##day
##dge
##dine
##dom
##dp
##ducing
##ese
##ey
##hops
##iating
##igenic
##inotransferase
##iogenesis
##ius
##l4
##lar
##lect
##llary
##net
##oderma
##oke
##oon
##oons
##ozygotes
##pts
##remia
##rf
##rg
##rm
##robial
##roscopy
##that
##tn
##unt
##uzumab
##vian
126
2nd
3rd
600
achieving
addressing
alteration
aura
autistic
bananas
borderline
bronchi
canada
clues
cmv
cones
consisting
consumers
correction
crackers
cuba
cyld
deficits
determination
dilatation
dr
educators
evoked
familiar
fist
generated
granules
hoarse
hypothesis
immunoglobulins
implantation
investigating
irritated
jeghers
joins
lysine
makeup
melanin
menkes
mesomelic
methionine
methyl
microcytic
mntriers
myopathies
ncl
nine
overnight
partly
passage
peutz
poland
posture
prediction
primordial
pronounced
psychomotor
reflects
regardless
rehab
rely
request
retinoschisis
reviewed
rules
sacrum
scores
semialdehyde
sigmoidoscopy
skip
slight
spondyloepimetaphyseal
steatocystoma
tgf
theory
twitches
uvula
vasculature
west
xy
yogurt
zinc
##00
##activation
##agliptin
##air
##arase
##aring
##bable
##ced
##cg
##ctasia
##ctor
##dominant
##glossia
##gus
##hr
##icles
##iopathy
##lase
##let
##lin
##lioma
##lossia
##nitis
##off
##over
##oxide
##pe
##play
##retin
##rospective
##ruct
##sidase
##tate
##tein
##ues
##ulofacial
##vating
##versible
adjustments
architecture
became
bulbar
burst
cafe
capsule
col2a1
collapse
collins
cooked
cvid
dehydrated
delta
dolorosa
electric
electrolytes
ellison
emotions
facilitate
gastaut
glut1
gonadotropin
gynecomastia
hailey
harbor
honey
horner
hps
humerus
ichthyosiform
ih
isovaleric
jobs
keratitis
kg
laron
ligase
locations
lymphocyte
minimal
odors
oranges
p450
pap
perhaps
pharmacist
pharynx
pink
pompe
promising
psoriatic
psychologist
pyloric
really
recycle
residue
responsibility
reticulum
reversed
rhythms
rubella
schizencephaly
schwannomas
starvation
steatosis
stillbirth
strips
suicide
syringomyelia
teenage
template
totalis
trna
uk
uncontrollable
users
varicella
worm
zollinger
##agenic
##ains
##ake
##amate
##ana
##asia
##asis
##bl
##ear
##ectodermal
##eum
##gine
##glutaric
##hf
##ices
##iform
##ilt
##izes
##laxis
##mark
##nf
##ococcal
##ogram
##ones
##oplasmic
##oprotein
##orted
##osin
##ound
##physis
##poproteinemia
##theless
##tous
##tt
##tum
##val
##vastatin
##ylate
2b
36
acupuncture
adenocarcinoma
amish
angiopathy
angle
arts
atrioventricular
bahrain
breads
calculated
cheek
chordoma
cleidocranial
compromised
conservative
cornelia
counselors
crowding
cystinosis
demyelination
diastolic
dihydropyrimidine
dislocations
diverticulitis
dozen
earlobe
encephalocele
equitable
expanded
extract
feed
fertilized
fits
flared
forearms
french
genereviews
gingivitis
grafting
hba1c
hypophosphatemia
implant
indirect
injure
isophane
leukodystrophies
lp
malfunctions
map
mendelian
mildest
mthfr
neuroacanthocytosis
neurogenic
neutral
nodular
oculopharyngeal
opportunity
pads
pains
partington
paying
percutaneous
petechiae
phenotypes
polyuria
prodigy
progeria
progesterone
promotion
punctate
ra
rabies
residual
rods
scarred
science
segments
separated
shall
siris
task
tcell
testis
therapists
thoroughly
transposition
treacher
underarm
vaccination
wagr
##1a2
##53
##a4
##all
##by
##ch1
##ching
##chromatopsia
##clusion
##cp
##ema
##ephaly
##glottis
##gonadotropic
##haly
##hosphate
##ica
##ice
##ike
##itrate
##ken
##light
##lipidemia
##most
##no
##ogen
##olve
##onal
##opulmonary
##osphate
##ously
##pp
##pressant
##pson
##tating
##text
##tid
##tologist
##tp
##transferase
##udes
##ulloblastoma
##ups
##uration
##zole
abetalipoproteinemia
abscesses
acylcarnitine
adiposis
alveoli
amongst
anxious
appendix
ar
attend
attributed
audience
baked
butterfly
c3
carney
cessation
cochlear
coenzyme
combining
connections
contained
contents
cosmetic
cry
curved
cvd
dermatofibrosarcoma
desire
dextrocardia
drooling
dryness
empties
fg
fibromatosis
galactosialidosis
glutamate
graft
hematologist
hyperammonemia
improvements
incisions
initiate
intervals
islander
jampel
lewy
ligands
manual
mccune
meckel
mercury
messenger
myth
namely
nasopharynx
nhpp
overwhelming
pauses
phlebotomy
protuberans
purine
quarter
real
rituximab
robin
salty
schwartz
sialic
significance
smelling
spend
stigma
subacute
succinic
suppression
tap
temperatures
temporal
tetrahydrobiopterin
thanatophoric
thrombocytosis
thyroxine
told
trimester
ubiquitin
uneven
unwanted
vas
vast
watching
weaker
weigh
workplace
##7a1
##84
##acyl
##ams
##aplotype
##butyric
##ddle
##ders
##dicated
##dler
##don
##door
##ef
##ella
##fish
##gf
##glinide
##ih
##iocarcinoma
##iologic
##istributed
##itus
##lf
##lide
##lize
##llin
##lm
##loss
##midine
##ong
##pin
##rap
##rix
##roglossia
##roid
##serve
##sive
##tar
##tomy
##tories
##uded
##unction
##ures
##version
##vitis
##ygote
##ylase
##yme
##zer
##zine
15q13
2001
2005
2012
43
acidic
actively
alexander
angioedema
appropriately
arch
armpits
ascending
assistive
backflow
bands
batten
beckwith
bipolar
burkitt
cleveland
cohen
convex
corresponding
cri
crying
cyprus
cytokinesis
cytomegalovirus
cytosine
dead
deaminase
debilitating
destroying
dilation
dowling
du
erythropoietin
experiments
exposures
facts
failed
favorable
fmr1
forearm
gags
hallmark
hashimotos
healthier
hemangioendothelioma
histiocytoma
hypermetropia
hypersensitivity
hyperuricemia
hypomagnesemia
idea
igf
incompatibility
influenced
introns
israel
kilobases
langer
lighted
majeed
mammogram
mannosidosis
midd
migrate
motif
mvp
najjar
networks
nothing
oculo
opinion
pathogenesis
perineum
phosphorylase
plasmapheresis
polio
polyunsaturated
poverty
prohibited
pws
rarer
recognition
reflex
regimens
responding
rotor
salmon
scanning
schwannomatosis
segregation
specialization
speculate
splicing
spray
strengthening
surviving
swings
tearing
threaded
timely
torti
townes
translation
triphalangeal
truncal
uh
unborn
undercooked
underweight
vegetable
vldl
widen
wider
worn
xanthomatosis
##85
##ah
##arism
##b4
##bpa
##ception
##chia
##ckling
##cytes
##eds
##eld
##eter
##family
##glasses
##graphic
##growth
##gue
##ically
##ingly
##jugated
##kg
##lain
##ntin
##odulators
##ols
##oral
##osing
##rophin
##sterase
##ten
##tial
##tional
##tructed
##uin
##ulfatase
##ument
##ura
##vative
##ying
##yping
##yx
##zoospermia
acknowledged
adhesion
afraid
allergens
amputations
anticonvulsants
basilar
beams
bell
bony
brocks
bulbous
catalytic
characterize
choking
cocaine
col4a1
concentrated
contagious
crest
cvs
define
drash
dyskeratosis
efficacy
endocrinologists
enteropathy
evening
exploring
fibula
formerly
forties
friction
gently
gloves
got
hcg
held
heredity
hiccups
holter
hydroxyurea
impairments
interprets
irritants
irs
island
jmml
leishmaniasis
macule
mal
mannose
melas
misconceptions
monthly
mrs
openings
ounce
outermost
paraparesis
pasta
porokeratosis
potocki
proline
pth
puncture
rhizomelic
rotavirus
russell
schools
shed
sputum
sri
sticky
suitable
supraorbital
systematic
tertiary
transcriptional
tricuspid
triggering
underwear
unidentified
vermis
warts
weighing
wire
wish
word
##99
##ag
##aline
##alyzed
##asal
##bile
##calciuria
##cn
##cr
##ctic
##finitely
##gated
##generative
##hn
##homas
##iciency
##ients
##iling
##imum
##ith
##ithiasis
##ived
##izers
##ket
##lines
##ngeal
##oglobin
##oidal
##omatosis
##orenal
##ovirus
##page
##quilibrium
##rapped
##rinted
##rush
##siology
##stomy
##taining
##tin
##toma
##totoxic
##ugh
##uh
##upervised
##urg
##urgical
##urity
##uses
##vention
##vular
##when
##yers
##ype
##zone
63
adds
adherence
adjusting
alive
alternating
analyze
arnold
asked
authors
biochemistry
brody
bronchoscopy
calcinosis
canavan
capital
cardiofaciocutaneous
cardiologists
cats
causative
combines
coping
costello
deferens
demonstrates
denys
deposited
discover
diverticulosis
efficient
elevation
embolization
evaluated
experiences
experimental
follicular
glass
gnas
hematopoietic
hemoglobinuria
hyperbilirubinemia
id
ideally
impossible
interrupted
irritate
junctions
labor
legumes
lentigines
lived
localization
madelung
median
methemoglobinemia
mind
ml
moisture
myhre
ndm
nicolaides
originally
orthopedic
pace
paraplegias
passages
perinatal
periodontal
phospholipids
pleurisy
portable
promptly
proteinosis
pseudohypoparathyroidism
pyelonephritis
recombinant
repairing
reportedly
routinely
scarce
schimke
sjogren
splenectomy
sternum
strains
subsequently
sucrose
teachers
tightness
triad
turkey
unnecessary
upset
volunteers
vulva
##4a
##acy
##ai
##arkes
##atched
##bate
##bbing
##bv
##cile
##drocytes
##eres
##essed
##eu
##gc
##hing
##inate
##inished
##iomas
##isone
##istry
##iuretic
##lonus
##lp
##minoma
##noma
##np
##ntal
##odilators
##odular
##oplasma
##oracic
##orescent
##orth
##otide
##ounding
##oyed
##point
##pose
##pv
##ree
##rodactyly
##ropic
##sibility
##skeletal
##stin
##thalamic
##uity
##ulae
##ulations
##urring
##uss
##vage
##ven
##wal
##yrimidine
1996
2011
38
72
acceptable
accepted
acquire
advantage
angiogram
anticoagulants
apert
arrangement
arthropathy
barth
baylisascaris
bearing
becker
beef
behcet
beliefs
boxes
calcifications
campaign
campaigns
catch
cephalopolysyndactyly
clubfoot
concentrating
consequently
cool
cow
crigler
eligible
entering
escobar
excluded
exudative
fasciitis
fibular
finnish
glutathione
gonads
granulomas
greek
greig
hall
hemolysis
hermansky
hies
hydroxysteroid
hyperfractionated
hyperinsulinism
hypermelanotic
hypochondroplasia
implants
inch
induces
infective
infertile
infrequent
instruments
intercourse
kar
kennedy
keratoconus
ko
larsen
larvae
leucine
maffucci
milroy
neighboring
nets
occiput
oligohydramnios
otc
outlet
palmitoyltransferase
pc
periodontitis
premutation
presentation
pressures
progestin
pten
publication
pudlak
recognizing
relievers
remembering
resolves
ringing
rubber
sella
soreness
strongest
tapeworm
teen
terminate
torso
translational
underlies
visiting
vitreoretinopathy
voiding
##acked
##aft
##bellar
##bital
##chromic
##cine
##conception
##den
##dication
##elitis
##ess
##fluenza
##fr2
##fulness
##hepatic
##hile
##hoe
##ht
##iation
##icated
##ignment
##insulinemia
##itive
##kia
##lactic
##lamin
##mble
##men
##minutes
##myelitis
##nore
##noring
##nses
##ode
##ogues
##omocysteine
##oms
##ondromatosis
##phosphate
##port
##posal
##ranous
##rans
##retinoin
##riol
##rodysplasia
##scribing
##stal
##tain
##tensive
##uantitative
##ucleic
##uence
##ught
##ulo
##urb
##utase
##uting
##wed
18q
2013
240
2q37
6q24
afibrinogenemia
afp
alleviate
amp
analytical
anorexia
antenatal
anticipation
applies
appointment
avm
biotinidase
blackfan
bo
bowed
braces
calvarial
caring
cav3
colds
collapsed
consumed
cpap
dates
detectable
dihydrolipoamide
disc
dislocated
duplicated
eec
elements
endometrium
eukaryotes
foramina
fryns
fto
fun
galactosemia
gdm
gerstmann
giedion
glomerulosclerosis
glucometer
glycolysis
gm2
gonadal
goodpasture
granuloma
herbal
imatinib
indicating
inhaling
iran
isnt
isomerase
joining
lacrimal
lamellar
lanka
lights
marburg
ministry
mody1
mody5
pad
paragangliomas
pbs
phototherapy
pi3k
pnd
polydipsia
pyrophosphate
races
radioulnar
ragged
realize
reliable
retroperitoneal
reye
roberts
sampling
saudi
scc
schistosomiasis
sensing
serine
shift
socioeconomic
squeezing
stated
student
substrate
synovial
teratomas
tetra
tolerated
tortuosity
tracheal
transmembrane
valine
vanishing
vara
vomit
waxy
webbing
ws
##30
##agia
##almos
##anthine
##asant
##aw
##borne
##collis
##cus
##demia
##ein
##ere
##eric
##erts
##exia
##fi
##fication
##flated
##gage
##har
##hc
##humeral
##icentric
##illary
##imeter
##inated
##ipa
##leasant
##mf
##mise
##nb
##ngage
##nic
##oc
##ocardial
##ofacial
##ola
##oline
##organized
##osaminidase
##ost
##otropia
##oyment
##pected
##philic
##ppler
##pposed
##rab
##rade
##rain
##ression
##rh
##ribution
##rity
##rive
##rner
##rocyte
##rocytosis
##rophies
##rove
##ser
##sian
##tact
##tical
##tomatic
##trist
##uable
##ularis
##ulating
##urge
##vens
##wards
##yte
abscess
accidental
aching
agencies
agree
alternatives
appearing
arteritis
assessed
avocados
baller
beer
behet
bend
bent
biotherapy
booklet
bounces
cabbage
centrosome
cerebrotendinous
cherry
collecting
combine
committee
continuously
curve
cystine
degos
dermatoglyphics
dizzy
drowsiness
dyspnea
eh
elimination
endemic
engaging
enhanced
farber
fistulas
fixed
flashes
flna
flushing
foul
fuse
gerold
gestation
halves
histology
infestation
intrinsic
kearns
krabbe
longest
mapping
maternally
moderately
nighttime
nonspecific
ollier
ophthalmoparesis
oropharynx
outbreak
outdoors
overseen
panel
papillary
pear
pendred
phobia
pilaris
popliteal
pose
progressiva
promyelocytic
radiosurgery
reabsorption
regulator
retinoids
sandhoff
sayre
seriously
serotonin
slide
smear
southeast
square
stockings
superficial
syphilis
tef
tetrasomy
touching
uncontrollably
undergoing
updated
valga
ventilation
xxx
yearly
zika
zone
##!
##"
###
##$
##%
##&
##'
##(
##)
##*
##+
##,
##-
##.
##/
##:
##;
##<
##=
##>
##?
##@
##[
##\
##]
##^
##_
##`
##{
##}
##~
##®
##°
##β
##μ
##–
##—
##‘
##’
##“
##”
##⁄
##−
##≥
##�
